{
  "version": "1.0",
  "truncation": null,
  "padding": null,
  "added_tokens": [
    {
      "id": 0,
      "content": "<PAD>",
      "single_word": false,
      "lstrip": false,
      "rstrip": false,
      "normalized": false,
      "special": true
    },
    {
      "id": 1,
      "content": "<MASK>",
      "single_word": false,
      "lstrip": false,
      "rstrip": false,
      "normalized": false,
      "special": true
    },
    {
      "id": 2,
      "content": "<BOS>",
      "single_word": false,
      "lstrip": false,
      "rstrip": false,
      "normalized": false,
      "special": true
    },
    {
      "id": 3,
      "content": "<EOS>",
      "single_word": false,
      "lstrip": false,
      "rstrip": false,
      "normalized": false,
      "special": true
    },
    {
      "id": 4,
      "content": "<SEP>",
      "single_word": false,
      "lstrip": false,
      "rstrip": false,
      "normalized": false,
      "special": true
    },
    {
      "id": 5,
      "content": "<UNK>",
      "single_word": false,
      "lstrip": false,
      "rstrip": false,
      "normalized": false,
      "special": true
    }
  ],
  "normalizer": null,
  "pre_tokenizer": {
    "type": "ByteLevel",
    "add_prefix_space": false,
    "trim_offsets": true,
    "use_regex": true
  },
  "post_processor": {
    "type": "ByteLevel",
    "add_prefix_space": true,
    "trim_offsets": false,
    "use_regex": true
  },
  "decoder": {
    "type": "ByteLevel",
    "add_prefix_space": true,
    "trim_offsets": true,
    "use_regex": true
  },
  "model": {
    "type": "BPE",
    "dropout": null,
    "unk_token": null,
    "continuing_subword_prefix": null,
    "end_of_word_suffix": null,
    "fuse_unk": false,
    "byte_fallback": false,
    "vocab": {
      "<PAD>": 0,
      "<MASK>": 1,
      "<BOS>": 2,
      "<EOS>": 3,
      "<SEP>": 4,
      "<UNK>": 5,
      "!": 6,
      "\"": 7,
      "#": 8,
      "$": 9,
      "%": 10,
      "&": 11,
      "'": 12,
      "(": 13,
      ")": 14,
      "*": 15,
      "+": 16,
      ",": 17,
      "-": 18,
      ".": 19,
      "/": 20,
      "0": 21,
      "1": 22,
      "2": 23,
      "3": 24,
      "4": 25,
      "5": 26,
      "6": 27,
      "7": 28,
      "8": 29,
      "9": 30,
      ":": 31,
      ";": 32,
      "<": 33,
      "=": 34,
      ">": 35,
      "?": 36,
      "@": 37,
      "A": 38,
      "B": 39,
      "C": 40,
      "D": 41,
      "E": 42,
      "F": 43,
      "G": 44,
      "H": 45,
      "I": 46,
      "J": 47,
      "K": 48,
      "L": 49,
      "M": 50,
      "N": 51,
      "O": 52,
      "P": 53,
      "Q": 54,
      "R": 55,
      "S": 56,
      "T": 57,
      "U": 58,
      "V": 59,
      "W": 60,
      "X": 61,
      "Y": 62,
      "Z": 63,
      "[": 64,
      "\\": 65,
      "]": 66,
      "^": 67,
      "_": 68,
      "`": 69,
      "a": 70,
      "b": 71,
      "c": 72,
      "d": 73,
      "e": 74,
      "f": 75,
      "g": 76,
      "h": 77,
      "i": 78,
      "j": 79,
      "k": 80,
      "l": 81,
      "m": 82,
      "n": 83,
      "o": 84,
      "p": 85,
      "q": 86,
      "r": 87,
      "s": 88,
      "t": 89,
      "u": 90,
      "v": 91,
      "w": 92,
      "x": 93,
      "y": 94,
      "z": 95,
      "{": 96,
      "|": 97,
      "}": 98,
      "~": 99,
      "¡": 100,
      "¢": 101,
      "£": 102,
      "¤": 103,
      "¥": 104,
      "¦": 105,
      "§": 106,
      "¨": 107,
      "©": 108,
      "ª": 109,
      "«": 110,
      "¬": 111,
      "®": 112,
      "¯": 113,
      "°": 114,
      "±": 115,
      "²": 116,
      "³": 117,
      "´": 118,
      "µ": 119,
      "¶": 120,
      "·": 121,
      "¸": 122,
      "¹": 123,
      "º": 124,
      "»": 125,
      "¼": 126,
      "½": 127,
      "¾": 128,
      "¿": 129,
      "À": 130,
      "Á": 131,
      "Â": 132,
      "Ã": 133,
      "Ä": 134,
      "Å": 135,
      "Æ": 136,
      "Ç": 137,
      "È": 138,
      "É": 139,
      "Ê": 140,
      "Ë": 141,
      "Ì": 142,
      "Í": 143,
      "Î": 144,
      "Ï": 145,
      "Ð": 146,
      "Ñ": 147,
      "Ò": 148,
      "Ó": 149,
      "Ô": 150,
      "Õ": 151,
      "Ö": 152,
      "×": 153,
      "Ø": 154,
      "Ù": 155,
      "Ú": 156,
      "Û": 157,
      "Ü": 158,
      "Ý": 159,
      "Þ": 160,
      "ß": 161,
      "à": 162,
      "á": 163,
      "â": 164,
      "ã": 165,
      "ä": 166,
      "å": 167,
      "æ": 168,
      "ç": 169,
      "è": 170,
      "é": 171,
      "ê": 172,
      "ë": 173,
      "ì": 174,
      "í": 175,
      "î": 176,
      "ï": 177,
      "ð": 178,
      "ñ": 179,
      "ò": 180,
      "ó": 181,
      "ô": 182,
      "õ": 183,
      "ö": 184,
      "÷": 185,
      "ø": 186,
      "ù": 187,
      "ú": 188,
      "û": 189,
      "ü": 190,
      "ý": 191,
      "þ": 192,
      "ÿ": 193,
      "Ā": 194,
      "ā": 195,
      "Ă": 196,
      "ă": 197,
      "Ą": 198,
      "ą": 199,
      "Ć": 200,
      "ć": 201,
      "Ĉ": 202,
      "ĉ": 203,
      "Ċ": 204,
      "ċ": 205,
      "Č": 206,
      "č": 207,
      "Ď": 208,
      "ď": 209,
      "Đ": 210,
      "đ": 211,
      "Ē": 212,
      "ē": 213,
      "Ĕ": 214,
      "ĕ": 215,
      "Ė": 216,
      "ė": 217,
      "Ę": 218,
      "ę": 219,
      "Ě": 220,
      "ě": 221,
      "Ĝ": 222,
      "ĝ": 223,
      "Ğ": 224,
      "ğ": 225,
      "Ġ": 226,
      "ġ": 227,
      "Ģ": 228,
      "ģ": 229,
      "Ĥ": 230,
      "ĥ": 231,
      "Ħ": 232,
      "ħ": 233,
      "Ĩ": 234,
      "ĩ": 235,
      "Ī": 236,
      "ī": 237,
      "Ĭ": 238,
      "ĭ": 239,
      "Į": 240,
      "į": 241,
      "İ": 242,
      "ı": 243,
      "Ĳ": 244,
      "ĳ": 245,
      "Ĵ": 246,
      "ĵ": 247,
      "Ķ": 248,
      "ķ": 249,
      "ĸ": 250,
      "Ĺ": 251,
      "ĺ": 252,
      "Ļ": 253,
      "ļ": 254,
      "Ľ": 255,
      "ľ": 256,
      "Ŀ": 257,
      "ŀ": 258,
      "Ł": 259,
      "ł": 260,
      "Ń": 261,
      "Ġa": 262,
      "Ġt": 263,
      "in": 264,
      "re": 265,
      "Ġo": 266,
      "he": 267,
      "on": 268,
      "er": 269,
      "at": 270,
      "en": 271,
      "Ġthe": 272,
      "an": 273,
      "es": 274,
      "Ġc": 275,
      "ed": 276,
      "it": 277,
      "al": 278,
      "Ġin": 279,
      "Ġan": 280,
      "Ġof": 281,
      "or": 282,
      "ion": 283,
      "Ġp": 284,
      "Ġs": 285,
      "Ġf": 286,
      "Ġand": 287,
      "Ġre": 288,
      "ing": 289,
      "ent": 290,
      "ar": 291,
      "om": 292,
      "is": 293,
      "ur": 294,
      "ct": 295,
      "Ġw": 296,
      "Ġto": 297,
      "Ġm": 298,
      "Ġb": 299,
      "ic": 300,
      "Ġd": 301,
      "ro": 302,
      "as": 303,
      "il": 304,
      "Ġe": 305,
      "ment": 306,
      "ation": 307,
      "st": 308,
      "et": 309,
      "Ġ2": 310,
      "ĠC": 311,
      "ve": 312,
      "ce": 313,
      "Ġl": 314,
      "un": 315,
      "Ġ20": 316,
      "omp": 317,
      "ly": 318,
      "Ġn": 319,
      "le": 320,
      "Ġas": 321,
      "Ġth": 322,
      "ate": 323,
      "im": 324,
      "ol": 325,
      "ul": 326,
      "Ġfor": 327,
      "Ġour": 328,
      "Ġpro": 329,
      "Ġcon": 330,
      "id": 331,
      "us": 332,
      "ut": 333,
      "Ġor": 334,
      "ĠS": 335,
      "ial": 336,
      "qu": 337,
      "ch": 338,
      "ab": 339,
      "Ġex": 340,
      "ies": 341,
      "Ġh": 342,
      "âĢ": 343,
      "lo": 344,
      "ect": 345,
      "Ġon": 346,
      "Ġbe": 347,
      "The": 348,
      "Ġinc": 349,
      "ated": 350,
      "ers": 351,
      "ĠA": 352,
      "ot": 353,
      "ompan": 354,
      "Ġst": 355,
      "ill": 356,
      "Ġ201": 357,
      "Ġde": 358,
      "red": 359,
      "Ġis": 360,
      "ig": 361,
      "ompany": 362,
      "Ġwe": 363,
      "Ġ$": 364,
      "ay": 365,
      "Ġsu": 366,
      "ive": 367,
      "se": 368,
      "ge": 369,
      "Ġ1": 370,
      "ity": 371,
      "ith": 372,
      "ments": 373,
      "Ġg": 374,
      "Ġare": 375,
      "ĠD": 376,
      "Ġwith": 377,
      "ain": 378,
      "ess": 379,
      "ĠCompany": 380,
      "if": 381,
      "ir": 382,
      "est": 383,
      "per": 384,
      "In": 385,
      "res": 386,
      "ort": 387,
      "iv": 388,
      "anc": 389,
      "Ġthat": 390,
      "Ġco": 391,
      "Ġ(": 392,
      "Ġv": 393,
      "ant": 394,
      "du": 395,
      "ĠF": 396,
      "her": 397,
      "Ġres": 398,
      "end": 399,
      "ue": 400,
      "ition": 401,
      "Ġun": 402,
      "act": 403,
      "oc": 404,
      "ud": 405,
      "ations": 406,
      "ĠP": 407,
      "Ġby": 408,
      "ber": 409,
      "pp": 410,
      "Ġint": 411,
      "Ġac": 412,
      "ver": 413,
      "Ġr": 414,
      "ance": 415,
      "Ġad": 416,
      "oun": 417,
      "Ġ3": 418,
      "able": 419,
      "Ġpr": 420,
      "Ġ200": 421,
      "ff": 422,
      "mber": 423,
      "Ġass": 424,
      "inanc": 425,
      "ec": 426,
      "ount": 427,
      "Ġper": 428,
      "Ġcomp": 429,
      "illion": 430,
      "00": 431,
      "os": 432,
      "pt": 433,
      "ther": 434,
      "ye": 435,
      "ĠM": 436,
      "Ġmillion": 437,
      "Ġexp": 438,
      "tr": 439,
      "inancial": 440,
      "od": 441,
      "omm": 442,
      "Ġfr": 443,
      "Ġwh": 444,
      "Ġal": 445,
      "ĠR": 446,
      "art": 447,
      "ure": 448,
      "ities": 449,
      "iz": 450,
      "Ġnot": 451,
      "--": 452,
      "ions": 453,
      "its": 454,
      "duct": 455,
      "ult": 456,
      "ĠN": 457,
      "Ġfrom": 458,
      "Ġha": 459,
      "ĠDe": 460,
      "Ġat": 461,
      "âĢĻ": 462,
      "and": 463,
      "age": 464,
      "lud": 465,
      "Ġsh": 466,
      "ase": 467,
      "ib": 468,
      "ĠE": 469,
      "ock": 470,
      "ĠO": 471,
      "Ġoper": 472,
      "ich": 473,
      "ire": 474,
      "Ġapp": 475,
      "der": 476,
      "tain": 477,
      "orm": 478,
      "ip": 479,
      "ust": 480,
      "Ġwhich": 481,
      "low": 482,
      "year": 483,
      "ren": 484,
      "ĠB": 485,
      "ĠIn": 486,
      "em": 487,
      "Ġus": 488,
      "Ġother": 489,
      "ard": 490,
      "ased": 491,
      "Ġinclud": 492,
      "Ġacc": 493,
      "ans": 494,
      "Ġmay": 495,
      "Ġfinancial": 496,
      "Ġ31": 497,
      "cember": 498,
      "ĠDecember": 499,
      "Ġyear": 500,
      "el": 501,
      "um": 502,
      "dition": 503,
      "Ġrep": 504,
      "Ġhave": 505,
      "ens": 506,
      "ark": 507,
      "erm": 508,
      "Ġproduct": 509,
      "Ġfa": 510,
      "ility": 511,
      "isc": 512,
      "Ġam": 513,
      "ates": 514,
      "Ġcomm": 515,
      "ets": 516,
      "Ġrec": 517,
      "ary": 518,
      "ax": 519,
      "ome": 520,
      "ĠT": 521,
      "ign": 522,
      "ad": 523,
      "Ġval": 524,
      "Ġtr": 525,
      "erv": 526,
      "Ġcons": 527,
      "Ġim": 528,
      "We": 529,
      "ffect": 530,
      "Ġstock": 531,
      "Ġsub": 532,
      "Ġresult": 533,
      "ree": 534,
      "uld": 535,
      "Ġsha": 536,
      "am": 537,
      "form": 538,
      "ap": 539,
      "ice": 540,
      "ĠSt": 541,
      "Ġimp": 542,
      "ors": 543,
      "Ġch": 544,
      "Ġman": 545,
      "og": 546,
      "ĠL": 547,
      "ru": 548,
      "ore": 549,
      "Ġrel": 550,
      "th": 551,
      "eg": 552,
      "Ġag": 553,
      "Ġcost": 554,
      "Ġwas": 555,
      "Ġmark": 556,
      "ical": 557,
      "ist": 558,
      "Ġrequ": 559,
      "Ġcont": 560,
      "ating": 561,
      "su": 562,
      "Ġinv": 563,
      "Ġunder": 564,
      "Ġits": 565,
      "Ġtax": 566,
      "iness": 567,
      "usiness": 568,
      "Ġprov": 569,
      "ow": 570,
      "ual": 571,
      "ific": 572,
      "ĠU": 573,
      "ĠâĢ": 574,
      "Ġreg": 575,
      "eral": 576,
      "Ġappro": 577,
      "ven": 578,
      "Ġvalue": 579,
      "ew": 580,
      "Ġwill": 581,
      "Ġincre": 582,
      "ere": 583,
      "Ġpart": 584,
      "ices": 585,
      "ash": 586,
      "Ġest": 587,
      "Ġbusiness": 588,
      "uring": 589,
      "igh": 590,
      "ĠI": 591,
      "ended": 592,
      "erest": 593,
      "ĠJ": 594,
      "fer": 595,
      "Ġany": 596,
      "Ġli": 597,
      "Ġserv": 598,
      "Ġmat": 599,
      "ac": 600,
      "Ġsal": 601,
      "ized": 602,
      "Ġstate": 603,
      "ter": 604,
      "Ġassets": 605,
      "old": 606,
      "Ġmarket": 607,
      "ord": 608,
      "Ġle": 609,
      "li": 610,
      "Ġpl": 611,
      "ertain": 612,
      "âĢĿ": 613,
      "Ġreport": 614,
      "up": 615,
      "ange": 616,
      "ef": 617,
      "Ġsuch": 618,
      "Ġpay": 619,
      "urren": 620,
      "Ġpur": 621,
      "Ġoperations": 622,
      "Ġamount": 623,
      "ug": 624,
      "Ġinterest": 625,
      "ges": 626,
      "Ġthese": 627,
      "Ġab": 628,
      "oss": 629,
      "Ġnet": 630,
      "iod": 631,
      "ĠG": 632,
      "----": 633,
      "lect": 634,
      "TE": 635,
      "Ġeffect": 636,
      "Ġaddition": 637,
      "olid": 638,
      "Ġinvest": 639,
      "Ġincome": 640,
      "Ġcash": 641,
      "Ġprovid": 642,
      "Ġresp": 643,
      "Ġhe": 644,
      "Ġperiod": 645,
      "Ġhas": 646,
      "000": 647,
      "por": 648,
      "ents": 649,
      "irect": 650,
      "Ġcould": 651,
      "ject": 652,
      "ous": 653,
      "Ġwere": 654,
      "cc": 655,
      "istr": 656,
      "Ġproducts": 657,
      "ings": 658,
      "Ġact": 659,
      "ustom": 660,
      "ight": 661,
      "Ġpre": 662,
      "rol": 663,
      "Ġaccount": 664,
      "ri": 665,
      "ecur": 666,
      "Ġthis": 667,
      "Ġlo": 668,
      "Ġqu": 669,
      "Ġequ": 670,
      "agement": 671,
      "ative": 672,
      "velo": 673,
      "imate": 674,
      "velop": 675,
      "olidated": 676,
      "Ġcustom": 677,
      "Ġover": 678,
      "ital": 679,
      "orpor": 680,
      "ep": 681,
      "lic": 682,
      "ired": 683,
      "Ġcl": 684,
      "ons": 685,
      "Ġrelated": 686,
      "Ġcurren": 687,
      "Ġcosts": 688,
      "ĠThe": 689,
      "ail": 690,
      "Ġ19": 691,
      "Ġended": 692,
      "Ġcommon": 693,
      "Ġreven": 694,
      "Ġob": 695,
      "Ġgen": 696,
      "ine": 697,
      "Ġcontr": 698,
      "ilities": 699,
      "ory": 700,
      "..": 701,
      "uture": 702,
      "so": 703,
      "Ġcap": 704,
      "erial": 705,
      "ugh": 706,
      "Ġshares": 707,
      "Ġfair": 708,
      "Ġdisc": 709,
      "Ġincluding": 710,
      "are": 711,
      "Ġcertain": 712,
      "Ġall": 713,
      "Ġdevelop": 714,
      "Ġtrans": 715,
      "Ġloss": 716,
      "ach": 717,
      "ollow": 718,
      "Ġacqu": 719,
      "Ġind": 720,
      "Ġen": 721,
      "ee": 722,
      "Ġfuture": 723,
      "Ġfollow": 724,
      "Ġtim": 725,
      "Ġyears": 726,
      "Ġterm": 727,
      "vers": 728,
      "Ġsales": 729,
      "redit": 730,
      "Ġsign": 731,
      "ense": 732,
      "mp": 733,
      "Ġmaterial": 734,
      "'s": 735,
      "our": 736,
      "ak": 737,
      "reement": 738,
      "Ġliab": 739,
      "ĠInc": 740,
      "Ġdec": 741,
      "ĠâĢľ": 742,
      "ong": 743,
      "Ġregul": 744,
      "isk": 745,
      "Ġrespect": 746,
      "ited": 747,
      "ificant": 748,
      "Ġstatements": 749,
      "ĠH": 750,
      "Ġissu": 751,
      "ption": 752,
      "ibut": 753,
      "Ġshare": 754,
      "Ġev": 755,
      "Ġalso": 756,
      "Ġoff": 757,
      "formation": 758,
      "Ġresults": 759,
      "Ġent": 760,
      "iscal": 761,
      "Ġme": 762,
      "Ġinter": 763,
      "Ġout": 764,
      "rant": 765,
      "Ġup": 766,
      "ĠEx": 767,
      "ures": 768,
      "ecurities": 769,
      "Ġbased": 770,
      "Ġ10": 771,
      "Ġdet": 772,
      "ogn": 773,
      "und": 774,
      "ptions": 775,
      "ry": 776,
      "Ġoperating": 777,
      "Ġsignificant": 778,
      "aw": 779,
      "Ġwhe": 780,
      "imately": 781,
      "ll": 782,
      "ible": 783,
      "erc": 784,
      "ank": 785,
      "Ġcontrol": 786,
      "Ġcontract": 787,
      "ty": 788,
      "inc": 789,
      "Ġestim": 790,
      "Ġapprox": 791,
      "ub": 792,
      "rough": 793,
      "row": 794,
      "Ġit": 795,
      "mplo": 796,
      "Ġref": 797,
      "Our": 798,
      "ferred": 799,
      "Ġsp": 800,
      "Ġfiscal": 801,
      "Ġrece": 802,
      "ise": 803,
      "Ġmanagement": 804,
      "Ġrate": 805,
      "Ġtime": 806,
      "over": 807,
      "Ġcurrent": 808,
      "Ġservices": 809,
      "Ġrequire": 810,
      "all": 811,
      "Ġcapital": 812,
      "Ġrisk": 813,
      "ily": 814,
      "ively": 815,
      "Ġprice": 816,
      "ech": 817,
      "ior": 818,
      "arch": 819,
      "Ġapproximately": 820,
      "Ġbeen": 821,
      "Ġinformation": 822,
      "Ġdue": 823,
      "Ġpurch": 824,
      "Ġdep": 825,
      "ced": 826,
      "ose": 827,
      "Ġthrough": 828,
      "ases": 829,
      "Ġtheir": 830,
      "olog": 831,
      "anges": 832,
      "air": 833,
      "Ġprim": 834,
      "enef": 835,
      "Ġrecogn": 836,
      "Ġincrease": 837,
      "Ġgeneral": 838,
      "ould": 839,
      "Ġexpect": 840,
      "nal": 841,
      "Ġif": 842,
      "Ġcredit": 843,
      "Ġduring": 844,
      "Ġsubject": 845,
      "Ġcondition": 846,
      "tal": 847,
      "Ġthan": 848,
      "ered": 849,
      "20": 850,
      "eren": 851,
      "echn": 852,
      "ied": 853,
      "Ġ199": 854,
      "Ġrecord": 855,
      "enses": 856,
      "ĠNot": 857,
      "ward": 858,
      "Ġnew": 859,
      "verse": 860,
      "ĠComm": 861,
      "Ġnon": 862,
      "ues": 863,
      "As": 864,
      "urance": 865,
      "Ġconsolidated": 866,
      "Ġemplo": 867,
      "bt": 868,
      "Ġdirect": 869,
      "Ġperform": 870,
      "Ġfollowing": 871,
      "ass": 872,
      "ensation": 873,
      "ork": 874,
      "Ġdo": 875,
      "Ġ-": 876,
      "Ġno": 877,
      "sid": 878,
      "ON": 879,
      "Ġ4": 880,
      "Ġadditional": 881,
      "ined": 882,
      "ĠFinancial": 883,
      "ffic": 884,
      "lig": 885,
      "Ġinst": 886,
      "isition": 887,
      "ident": 888,
      "Ġinto": 889,
      "Ġfac": 890,
      "ĠUn": 891,
      "Ġcontin": 892,
      "cess": 893,
      "arily": 894,
      "ection": 895,
      "Ġaffect": 896,
      "resent": 897,
      "ia": 898,
      "wn": 899,
      "ĠW": 900,
      "Ġdeterm": 901,
      "ĠState": 902,
      "olders": 903,
      "ĠV": 904,
      "Ġeach": 905,
      "Ġadverse": 906,
      "Ġreporting": 907,
      "Ġsupp": 908,
      "Ġdate": 909,
      "ĠâĢ¢": 910,
      "itt": 911,
      "Ġimpact": 912,
      "hip": 913,
      "ont": 914,
      "Ġbenef": 915,
      "incip": 916,
      "Ġcustomers": 917,
      "Ġproper": 918,
      "nual": 919,
      "Ġrevenue": 920,
      "Ġ2016": 921,
      "ified": 922,
      "Ġrequired": 923,
      "âĢĿ)": 924,
      "tem": 925,
      "ost": 926,
      "Ġexpense": 927,
      "out": 928,
      "Ġthere": 929,
      "ĠCh": 930,
      "ell": 931,
      "Ġtotal": 932,
      "Ġ2017": 933,
      "ss": 934,
      "ari": 935,
      "vail": 936,
      "Ġear": 937,
      "Ġdes": 938,
      "ast": 939,
      "Ġcan": 940,
      "IN": 941,
      "fact": 942,
      "ces": 943,
      "ivid": 944,
      "ence": 945,
      "ade": 946,
      "Ġrest": 947,
      "Ġ5": 948,
      "arter": 949,
      "eve": 950,
      "Ġchanges": 951,
      "Ġdevelopment": 952,
      "oard": 953,
      "Ġmore": 954,
      "ood": 955,
      "Ġret": 956,
      "__": 957,
      "ĠNo": 958,
      "yst": 959,
      "ecut": 960,
      "arg": 961,
      "EN": 962,
      "echnolog": 963,
      "Ġbas": 964,
      "vi": 965,
      "Ġprimarily": 966,
      "verage": 967,
      "Ġexpenses": 968,
      "Ġdef": 969,
      "Ġpat": 970,
      "Ġ2015": 971,
      "Ġ2014": 972,
      "Ġfil": 973,
      "Ġacquisition": 974,
      "Ġ30": 975,
      "les": 976,
      "anding": 977,
      "Ġmon": 978,
      "op": 979,
      "iss": 980,
      "ĠPro": 981,
      "Ġown": 982,
      "Ġliabilities": 983,
      "TEM": 984,
      "ĠAg": 985,
      "Ġ8": 986,
      "DA": 987,
      "Ġsecurities": 988,
      "Ġreceiv": 989,
      "Ġfore": 990,
      "Ġapplic": 991,
      "Ġlim": 992,
      "gr": 993,
      "ufact": 994,
      "Ġ2018": 995,
      "Ġloans": 996,
      "Ġprincip": 997,
      "Ġ2013": 998,
      "AS": 999,
      "ystem": 1000,
      "ization": 1001,
      "ex": 1002,
      "change": 1003,
      "Ġdebt": 1004,
      "cy": 1005,
      "Ġmain": 1006,
      "Ġwould": 1007,
      "AN": 1008,
      "Ġcompany": 1009,
      "Ġcompet": 1010,
      "oll": 1011,
      "ĠAct": 1012,
      "Ġrates": 1013,
      "Ġavail": 1014,
      "Ġ2012": 1015,
      "Ġvari": 1016,
      "Ġactiv": 1017,
      "Ġrespectively": 1018,
      "Ġrem": 1019,
      "Ġbasis": 1020,
      "Ġcar": 1021,
      "Ġtransact": 1022,
      "Ġaccounting": 1023,
      "Ġissued": 1024,
      "Ġincluded": 1025,
      "ared": 1026,
      "ag": 1027,
      "standing": 1028,
      "ability": 1029,
      "aus": 1030,
      "Ġlaw": 1031,
      "ace": 1032,
      "Ġport": 1033,
      "Ġdif": 1034,
      "istribut": 1035,
      "Ġflow": 1036,
      "Ġgrant": 1037,
      "Ġ2011": 1038,
      "Ġmanufact": 1039,
      "Ġfund": 1040,
      "ĠPl": 1041,
      "Ġbeli": 1042,
      "ances": 1043,
      "Ġj": 1044,
      "Ġupon": 1045,
      "sidi": 1046,
      "Ġincreased": 1047,
      "Ġemploye": 1048,
      "Ġquarter": 1049,
      "ang": 1050,
      "osition": 1051,
      "Ġoblig": 1052,
      "Ġrecorded": 1053,
      "icip": 1054,
      "Ġmet": 1055,
      "Ġamounts": 1056,
      "Ġinclude": 1057,
      "Ġused": 1058,
      "--------": 1059,
      "ceed": 1060,
      "aid": 1061,
      "atory": 1062,
      "ES": 1063,
      "ever": 1064,
      "io": 1065,
      "ational": 1066,
      "Ġability": 1067,
      "Ġone": 1068,
      "los": 1069,
      "Ġdis": 1070,
      "Ġinvestment": 1071,
      "ties": 1072,
      "Ġplan": 1073,
      "Ġuse": 1074,
      "iated": 1075,
      "ĠStock": 1076,
      "Th": 1077,
      "Ġdecre": 1078,
      "Ġprovide": 1079,
      "Ġ2010": 1080,
      "Ġearn": 1081,
      "ĠForm": 1082,
      "AL": 1083,
      "dust": 1084,
      "Ġ2009": 1085,
      "....": 1086,
      "ecutive": 1087,
      "Ġ2019": 1088,
      "Ġagreement": 1089,
      "gram": 1090,
      "holders": 1091,
      "Ġapprov": 1092,
      "surance": 1093,
      "Ġloan": 1094,
      "TI": 1095,
      "ack": 1096,
      "Ġwell": 1097,
      "Ġconsid": 1098,
      "Ġpurchase": 1099,
      "Ġtechnolog": 1100,
      ").": 1101,
      "Ġoutstanding": 1102,
      "ake": 1103,
      "Ġ2008": 1104,
      "Ġdistribut": 1105,
      "ĠRep": 1106,
      "ercial": 1107,
      "int": 1108,
      "ederal": 1109,
      "vel": 1110,
      "cent": 1111,
      "These": 1112,
      "alu": 1113,
      "Ġavailable": 1114,
      "ower": 1115,
      "Ġallow": 1116,
      "lement": 1117,
      "ond": 1118,
      "ĠCons": 1119,
      "Ġthose": 1120,
      "Ġar": 1121,
      "Ġright": 1122,
      "ĠAgreement": 1123,
      "just": 1124,
      "olic": 1125,
      "Ġsubsidi": 1126,
      "Ġoptions": 1127,
      "Ġcompensation": 1128,
      "own": 1129,
      "overn": 1130,
      "Ġlosses": 1131,
      "Ġ7": 1132,
      "Ġrequirements": 1133,
      "aim": 1134,
      "hed": 1135,
      "Ġaut": 1136,
      "Ġloc": 1137,
      "Ġequity": 1138,
      "OR": 1139,
      "ld": 1140,
      "Ġrecognized": 1141,
      "If": 1142,
      "10": 1143,
      "ite": 1144,
      "cept": 1145,
      "ata": 1146,
      "urn": 1147,
      "Ġbal": 1148,
      "Ġsystem": 1149,
      "ER": 1150,
      "let": 1151,
      "Ġspec": 1152,
      "Ġfe": 1153,
      "Ġeffective": 1154,
      "Ġinternal": 1155,
      "erence": 1156,
      "Ġreal": 1157,
      "Ġseg": 1158,
      "umber": 1159,
      "Ġfact": 1160,
      "Ġperformance": 1161,
      "andard": 1162,
      "Ġaud": 1163,
      "Ġgenerally": 1164,
      "Ġservice": 1165,
      "ird": 1166,
      "we": 1167,
      "fter": 1168,
      "ĠSe": 1169,
      "ke": 1170,
      "Ġ6": 1171,
      "Ġ2007": 1172,
      "Ġdiff": 1173,
      "ially": 1174,
      "Ġdel": 1175,
      "rict": 1176,
      "erg": 1177,
      "reements": 1178,
      "ublic": 1179,
      "ause": 1180,
      "Ġwhen": 1181,
      "ruct": 1182,
      "Ġestimated": 1183,
      "con": 1184,
      "Ġlong": 1185,
      "uary": 1186,
      "Ġprocess": 1187,
      "ĠJan": 1188,
      "Ġimpair": 1189,
      "AR": 1190,
      "Ġexpected": 1191,
      "Ġbec": 1192,
      "ĠBoard": 1193,
      "Ġstr": 1194,
      "Ġcommercial": 1195,
      "Ġ9": 1196,
      "ĠDirect": 1197,
      "Ġext": 1198,
      "ĠJanuary": 1199,
      "ize": 1200,
      "ason": 1201,
      "Ġmeas": 1202,
      "ile": 1203,
      "ued": 1204,
      "ix": 1205,
      "Ġhad": 1206,
      "Ġrevenues": 1207,
      "Ġnumber": 1208,
      "Ġcompared": 1209,
      "âĢľ": 1210,
      "hor": 1211,
      "une": 1212,
      "Ġindust": 1213,
      "ership": 1214,
      "Ġcustomer": 1215,
      "pos": 1216,
      "ants": 1217,
      "Ġforeign": 1218,
      "Ġprogram": 1219,
      "ĠAm": 1220,
      "),": 1221,
      "Ġannual": 1222,
      "ND": 1223,
      "Ġexist": 1224,
      "ENT": 1225,
      "ĠMarch": 1226,
      "ĠTr": 1227,
      "ĠReport": 1228,
      "ccount": 1229,
      "ured": 1230,
      "Ġassum": 1231,
      "Ġasset": 1232,
      "aries": 1233,
      "Ġbet": 1234,
      "Ġcarry": 1235,
      "Ġclaim": 1236,
      "Ġ2006": 1237,
      "Ġ15": 1238,
      "orporation": 1239,
      "Ġprincipal": 1240,
      "Ġactivities": 1241,
      "ination": 1242,
      "ives": 1243,
      "Ġso": 1244,
      "Ġevalu": 1245,
      "ĠPlan": 1246,
      "the": 1247,
      "Ġadjust": 1248,
      "pr": 1249,
      "Ġthird": 1250,
      "Ġ(âĢľ": 1251,
      "Ġredu": 1252,
      "ĠUnited": 1253,
      "Ġprof": 1254,
      "ompanies": 1255,
      "ines": 1256,
      "ĠJune": 1257,
      "lis": 1258,
      "Ġfir": 1259,
      "Ġpayments": 1260,
      "Ġgu": 1261,
      "Ġassoc": 1262,
      "Ġproperty": 1263,
      "ĠStates": 1264,
      "This": 1265,
      "Ġterms": 1266,
      "Ġchar": 1267,
      "Ġpresent": 1268,
      "Ġexper": 1269,
      "ress": 1270,
      "Ġfiled": 1271,
      "==": 1272,
      "Ġpers": 1273,
      "OL": 1274,
      "reat": 1275,
      "Ġsell": 1276,
      "Ġconsist": 1277,
      "Ġmaintain": 1278,
      "Ġconditions": 1279,
      "Ġlevel": 1280,
      "ipment": 1281,
      "ĠStatements": 1282,
      "vert": 1283,
      "Ġagreements": 1284,
      "ision": 1285,
      "Ġgrow": 1286,
      "ember": 1287,
      "Ġlic": 1288,
      "Ġtw": 1289,
      "Ġliability": 1290,
      "ett": 1291,
      "Ġdeferred": 1292,
      "ateg": 1293,
      "EC": 1294,
      "ends": 1295,
      "hib": 1296,
      "Ġdesign": 1297,
      "Ġprior": 1298,
      "ically": 1299,
      "Ġinvestments": 1300,
      "hod": 1301,
      "CI": 1302,
      "otent": 1303,
      "Ġwithin": 1304,
      "Ġdivid": 1305,
      "orporated": 1306,
      "Ġsubst": 1307,
      "Ġimpairment": 1308,
      "Ġchange": 1309,
      "uct": 1310,
      "Ġmonth": 1311,
      "ptember": 1312,
      "ĠConsolidated": 1313,
      "ĠSeptember": 1314,
      "Ġincur": 1315,
      "Ġsale": 1316,
      "Ġcompanies": 1317,
      "Ġregulatory": 1318,
      "ient": 1319,
      "Ġpercent": 1320,
      "Ġrestrict": 1321,
      "term": 1322,
      "Ġmade": 1323,
      "Ġgovern": 1324,
      "Ġposition": 1325,
      "Ġpolic": 1326,
      "ween": 1327,
      "inical": 1328,
      "ys": 1329,
      "Ġaccord": 1330,
      "Ġassociated": 1331,
      "orrow": 1332,
      "Ġsec": 1333,
      "Ġpotent": 1334,
      "Ġbank": 1335,
      "ional": 1336,
      "ove": 1337,
      "Ġcomplet": 1338,
      "Ġmethod": 1339,
      "Ġestimates": 1340,
      "Ġemployees": 1341,
      "Ġbetween": 1342,
      "ĠBank": 1343,
      "Ġreason": 1344,
      "Ġobligations": 1345,
      "Ġflows": 1346,
      "Ġafter": 1347,
      "Ġusing": 1348,
      "Ġbelieve": 1349,
      "Ġne": 1350,
      "Ġobtain": 1351,
      "ev": 1352,
      "Ġ2005": 1353,
      "Ġcontracts": 1354,
      "Ġearnings": 1355,
      "Ġinsurance": 1356,
      "ĠAccount": 1357,
      "Ġlease": 1358,
      "ĠReg": 1359,
      "On": 1360,
      "Ġpaid": 1361,
      "For": 1362,
      "ĠNotes": 1363,
      "Ġqual": 1364,
      "ĠWe": 1365,
      "ources": 1366,
      "wards": 1367,
      "ending": 1368,
      "Ġfactors": 1369,
      "oint": 1370,
      "rec": 1371,
      "conom": 1372,
      "rit": 1373,
      "Ġreference": 1374,
      "TA": 1375,
      "based": 1376,
      "Ġdata": 1377,
      "Ġthree": 1378,
      "Ġ2020": 1379,
      "ĠOffic": 1380,
      "Ġregulations": 1381,
      "ning": 1382,
      "Ġgro": 1383,
      "Ġexperi": 1384,
      "alth": 1385,
      "Ġprices": 1386,
      "Ġcontinue": 1387,
      "Ġauthor": 1388,
      "Ġadversely": 1389,
      "iation": 1390,
      "Ġform": 1391,
      "Ġgood": 1392,
      "Ġado": 1393,
      "suant": 1394,
      "Ġvol": 1395,
      "ĠComp": 1396,
      "Ġful": 1397,
      "urch": 1398,
      "olv": 1399,
      "Ġperiods": 1400,
      "ĠFe": 1401,
      "Ġremain": 1402,
      "Ġmarkets": 1403,
      "Ġvarious": 1404,
      "Ġbalance": 1405,
      "ĠAND": 1406,
      "ĠK": 1407,
      "Ġrights": 1408,
      "Ġassess": 1409,
      "Ġless": 1410,
      "endent": 1411,
      "ĠNote": 1412,
      "Ġlaws": 1413,
      "Ġmin": 1414,
      "Ġ2004": 1415,
      "50": 1416,
      "Ġcompetit": 1417,
      "ablis": 1418,
      "Ġeconom": 1419,
      "for": 1420,
      "Ġaverage": 1421,
      "ame": 1422,
      "Ġaccounts": 1423,
      "Ġsc": 1424,
      "ĠEn": 1425,
      "Ġborrow": 1426,
      "ands": 1427,
      "Ġfacility": 1428,
      "ief": 1429,
      "Ġmod": 1430,
      "mental": 1431,
      "Ġstandard": 1432,
      "ft": 1433,
      "Ġren": 1434,
      "Item": 1435,
      "min": 1436,
      "arrant": 1437,
      "Ġexerc": 1438,
      "Ġfederal": 1439,
      "Ġequipment": 1440,
      "Ġtransactions": 1441,
      "Ġreflect": 1442,
      "ccess": 1443,
      "Ġdirectors": 1444,
      "ission": 1445,
      "led": 1446,
      "isions": 1447,
      "Ġsubstant": 1448,
      "will": 1449,
      "Ġtable": 1450,
      "Ġestablis": 1451,
      "ret": 1452,
      "Ġproject": 1453,
      "Ġsegment": 1454,
      "reg": 1455,
      "Ġpayment": 1456,
      "view": 1457,
      "ĠAn": 1458,
      "Ġclaims": 1459,
      "inal": 1460,
      "itut": 1461,
      "eriv": 1462,
      "Ġocc": 1463,
      "fore": 1464,
      "ful": 1465,
      "anagement": 1466,
      "Ġmake": 1467,
      "Ġoffic": 1468,
      "Ġant": 1469,
      "ics": 1470,
      "Ġelect": 1471,
      "Ġ\"": 1472,
      "Ġpublic": 1473,
      "Ġamort": 1474,
      "Ġregard": 1475,
      "one": 1476,
      "gan": 1477,
      "Ġoffer": 1478,
      "Ġtechnology": 1479,
      "Ġadv": 1480,
      "ict": 1481,
      "ONS": 1482,
      "Ġaccordance": 1483,
      "arm": 1484,
      "Ġtaxes": 1485,
      "Ġindustry": 1486,
      "Ġhigh": 1487,
      "ĠRe": 1488,
      "Ġexisting": 1489,
      "Ġwork": 1490,
      "ĠInter": 1491,
      "line": 1492,
      "bru": 1493,
      "yp": 1494,
      "ert": 1495,
      "bruary": 1496,
      "IT": 1497,
      "Ġnotes": 1498,
      "ĠFebruary": 1499,
      "Ġcurrently": 1500,
      "ĠIN": 1501,
      "uss": 1502,
      "Ġclinical": 1503,
      "iven": 1504,
      "Un": 1505,
      "Ġpotential": 1506,
      "Ġ12": 1507,
      "ruments": 1508,
      "15": 1509,
      "Ġfacilities": 1510,
      "ontin": 1511,
      "Ġproceed": 1512,
      "Ġsubsidiaries": 1513,
      "Ġclass": 1514,
      "vest": 1515,
      "Ġgrowth": 1516,
      "Ġdem": 1517,
      "ide": 1518,
      "Ġgain": 1519,
      "ĠCorporation": 1520,
      "Ġbenefit": 1521,
      "ĠOfficer": 1522,
      "Ġtest": 1523,
      "ĠCon": 1524,
      "Ġbelow": 1525,
      "Ġprovided": 1526,
      ".,": 1527,
      "Ġtrad": 1528,
      "orporate": 1529,
      "Ġop": 1530,
      "hen": 1531,
      "ĠSecurities": 1532,
      "Ġoption": 1533,
      "Ġ2003": 1534,
      "Ġacquired": 1535,
      "Ġperson": 1536,
      "ĠAccounting": 1537,
      "Ġsuccess": 1538,
      "Ġtwo": 1539,
      "ITEM": 1540,
      "____": 1541,
      "pri": 1542,
      "ays": 1543,
      "Ġleg": 1544,
      "ii": 1545,
      "vir": 1546,
      "quid": 1547,
      "loc": 1548,
      "urther": 1549,
      "Ġgener": 1550,
      "12": 1551,
      "ification": 1552,
      "Ġfirst": 1553,
      "TED": 1554,
      "ittee": 1555,
      "ify": 1556,
      "Ġapproval": 1557,
      "enior": 1558,
      "Ġcoun": 1559,
      "Ġinf": 1560,
      "ware": 1561,
      "inancing": 1562,
      "range": 1563,
      "Ġapplicable": 1564,
      "Ġfees": 1565,
      "oth": 1566,
      "Ġbut": 1567,
      "Ġagain": 1568,
      "ober": 1569,
      "hibit": 1570,
      "uly": 1571,
      "Ġcoll": 1572,
      "Ġconn": 1573,
      "Ġdetermined": 1574,
      "Ġdecrease": 1575,
      "Ġcarrying": 1576,
      "ENTS": 1577,
      "rap": 1578,
      "Ġse": 1579,
      "ollect": 1580,
      "Ġ13": 1581,
      "Ġinit": 1582,
      "viron": 1583,
      "Ġincludes": 1584,
      "ministr": 1585,
      "Ġreturn": 1586,
      "Ġunc": 1587,
      "Ġindic": 1588,
      "Ġcompon": 1589,
      "Ġreceived": 1590,
      "ĠExchange": 1591,
      "Ġconsider": 1592,
      "Ġheld": 1593,
      "Ġderiv": 1594,
      "Ġagainst": 1595,
      "part": 1596,
      "Ġ2002": 1597,
      "ages": 1598,
      "liance": 1599,
      "fol": 1600,
      "Ġplans": 1601,
      "Ġmeet": 1602,
      "Ġimpro": 1603,
      "Ġneed": 1604,
      "cr": 1605,
      "ĠMay": 1606,
      "cies": 1607,
      "Ġnat": 1608,
      "Ġexchange": 1609,
      "Ġvalu": 1610,
      "ĠAS": 1611,
      "Ġreview": 1612,
      "abor": 1613,
      "Ġlimit": 1614,
      "greg": 1615,
      "ĠRes": 1616,
      "ĠDirectors": 1617,
      "clud": 1618,
      "Ġprot": 1619,
      "Ġneg": 1620,
      "Ġfail": 1621,
      "Ġfollows": 1622,
      "ĠChief": 1623,
      "CIAL": 1624,
      "Ġhig": 1625,
      "Ġwarrant": 1626,
      "ĠFIN": 1627,
      "ĠY": 1628,
      "Ġeconomic": 1629,
      "ĠSh": 1630,
      "ontinued": 1631,
      "Ġmanufacturing": 1632,
      "Ġattr": 1633,
      "Ġsupport": 1634,
      "Ġrisks": 1635,
      "Ġbenefits": 1636,
      "Ġlimited": 1637,
      "ires": 1638,
      "Ġproduction": 1639,
      "av": 1640,
      "Ġsim": 1641,
      "Ġthey": 1642,
      "Ġprovides": 1643,
      "Ġconnection": 1644,
      "13": 1645,
      "Ġsold": 1646,
      "Ġabove": 1647,
      "angible": 1648,
      "losure": 1649,
      "Ġassumptions": 1650,
      "Ġsystems": 1651,
      "Ġlower": 1652,
      "Ġoffs": 1653,
      "sp": 1654,
      "Ġreported": 1655,
      "Ġportfol": 1656,
      "ĠPart": 1657,
      "ctober": 1658,
      "Ġregarding": 1659,
      "Ġut": 1660,
      "Ġph": 1661,
      "iver": 1662,
      "Ġgas": 1663,
      "ĠOper": 1664,
      "ĠOctober": 1665,
      "ANCIAL": 1666,
      "Ġarrange": 1667,
      "Ġident": 1668,
      "Ġtyp": 1669,
      "ince": 1670,
      "Ġaggreg": 1671,
      "Ġaccept": 1672,
      "Ġrese": 1673,
      "Ġaudit": 1674,
      "Ġdepos": 1675,
      "Ġunits": 1676,
      "Ġstrateg": 1677,
      "Ġhist": 1678,
      "Ġtrial": 1679,
      "Ġincurred": 1680,
      "ĠSTA": 1681,
      "Ġboth": 1682,
      "14": 1683,
      "Ġhealth": 1684,
      "cedures": 1685,
      "IC": 1686,
      "omb": 1687,
      "OTE": 1688,
      "Ġmarketing": 1689,
      "imum": 1690,
      "During": 1691,
      "25": 1692,
      "Ġconst": 1693,
      "quent": 1694,
      "cul": 1695,
      "Ġinstruments": 1696,
      "olut": 1697,
      "ĠApr": 1698,
      "Ġro": 1699,
      "ĠApril": 1700,
      "ok": 1701,
      "Ġpursuant": 1702,
      "owever": 1703,
      "Ġcurrency": 1704,
      "Ġgoodwill": 1705,
      "ĠFINANCIAL": 1706,
      "aj": 1707,
      "Ġcal": 1708,
      "Ġshe": 1709,
      "ural": 1710,
      "Ġhigher": 1711,
      "ĠItem": 1712,
      "ependent": 1713,
      "Ġportion": 1714,
      "ric": 1715,
      "OLI": 1716,
      "Ġend": 1717,
      "ecess": 1718,
      "Ġentered": 1719,
      "An": 1720,
      "Ġpartn": 1721,
      "Ġfinancing": 1722,
      "ĠJuly": 1723,
      "Ġmonths": 1724,
      "resident": 1725,
      "Ġrepresent": 1726,
      "ecurity": 1727,
      "gin": 1728,
      "ĠExecutive": 1729,
      "19": 1730,
      "Ġprofit": 1731,
      "rug": 1732,
      "Ġenviron": 1733,
      "eric": 1734,
      "Ġportfolio": 1735,
      "national": 1736,
      "inated": 1737,
      "Ġliquid": 1738,
      "Ġ14": 1739,
      "Ġperm": 1740,
      "egr": 1741,
      "Ġy": 1742,
      "ised": 1743,
      "Ġaccru": 1744,
      "Ġexperience": 1745,
      "ĠSTATEM": 1746,
      "unct": 1747,
      "gage": 1748,
      "ilar": 1749,
      "Ġsome": 1750,
      "ĠNove": 1751,
      "ĠNovember": 1752,
      "Ġthous": 1753,
      "ife": 1754,
      "ditional": 1755,
      "Ġprep": 1756,
      "Ġallowance": 1757,
      "Ġdividends": 1758,
      "arket": 1759,
      "Ġinvent": 1760,
      "ajor": 1761,
      "ules": 1762,
      "Ġvest": 1763,
      "Ġdiscuss": 1764,
      "vious": 1765,
      "Ġsum": 1766,
      "vent": 1767,
      "Ġconsum": 1768,
      "Ġreasonable": 1769,
      "ety": 1770,
      "Ġparticip": 1771,
      "bal": 1772,
      "nel": 1773,
      "Ġassurance": 1774,
      "ĠLL": 1775,
      "cl": 1776,
      "ollar": 1777,
      "Ġdiscount": 1778,
      "Ġfunds": 1779,
      "Ġvaluation": 1780,
      "umul": 1781,
      "Ġoccur": 1782,
      "Ġgranted": 1783,
      "ugust": 1784,
      "Ġguid": 1785,
      "Ġawards": 1786,
      "Ġconduct": 1787,
      "Ġmeasure": 1788,
      "Ġpolicies": 1789,
      "ĠCONS": 1790,
      "Ġprovisions": 1791,
      "Ġwhere": 1792,
      "Ġdoes": 1793,
      "Ġaffected": 1794,
      "Ġresearch": 1795,
      "Ġmanufacture": 1796,
      "Ġoffset": 1797,
      "erve": 1798,
      "ĠAugust": 1799,
      "andid": 1800,
      "Ġsett": 1801,
      "Ġnecess": 1802,
      "Ġprocedures": 1803,
      "urchase": 1804,
      "Ġonly": 1805,
      "Ġstatement": 1806,
      "Ġdifferen": 1807,
      "ension": 1808,
      "Ġ2001": 1809,
      "Ġaggregate": 1810,
      "Ġmost": 1811,
      "Ġrat": 1812,
      "Ġexecutive": 1813,
      "Ġinstitut": 1814,
      "Ġcontain": 1815,
      "ĠAd": 1816,
      "Ġable": 1817,
      "Ġincorporated": 1818,
      "Ġanal": 1819,
      "Ġhed": 1820,
      "ian": 1821,
      "Ġorder": 1822,
      "Ġproperties": 1823,
      "OLIDA": 1824,
      "Ġmajor": 1825,
      "ately": 1826,
      "........": 1827,
      "Ġcollect": 1828,
      "Ġcandid": 1829,
      "als": 1830,
      "Ġwho": 1831,
      "ring": 1832,
      "ising": 1833,
      "icing": 1834,
      "Ġfour": 1835,
      "ĠPresident": 1836,
      "Ġparties": 1837,
      "ĠMr": 1838,
      "ixed": 1839,
      "ĠSTATEMENTS": 1840,
      "Ġtransaction": 1841,
      "fficient": 1842,
      "crib": 1843,
      "ontrol": 1844,
      "itig": 1845,
      "ĠAmeric": 1846,
      "iel": 1847,
      "ency": 1848,
      "ĠCONSOLIDA": 1849,
      "encies": 1850,
      "Ġdemand": 1851,
      "Ġhistor": 1852,
      "%,": 1853,
      "Ġstockholders": 1854,
      "ĠStatement": 1855,
      "Ġdefined": 1856,
      "Ġamong": 1857,
      "Ġrespons": 1858,
      "At": 1859,
      "ĠInd": 1860,
      "older": 1861,
      "Ġadministr": 1862,
      "IS": 1863,
      "ergy": 1864,
      "ivers": 1865,
      "arge": 1866,
      "16": 1867,
      "ium": 1868,
      "irc": 1869,
      "Ġmed": 1870,
      "ival": 1871,
      "ĠAss": 1872,
      "Ġhere": 1873,
      "Ġanticip": 1874,
      "ĠServ": 1875,
      "Ġuncertain": 1876,
      "put": 1877,
      "ĠCommittee": 1878,
      "ĠOF": 1879,
      "ftware": 1880,
      "ATI": 1881,
      "Ġdated": 1882,
      "Ġcontrols": 1883,
      "Ġfl": 1884,
      "Ġestate": 1885,
      "ĠCONSOLIDATED": 1886,
      "ra": 1887,
      "There": 1888,
      "Ġsimilar": 1889,
      "udg": 1890,
      "ear": 1891,
      "ĠLo": 1892,
      "Ġpayable": 1893,
      "ope": 1894,
      "ten": 1895,
      "itures": 1896,
      "Ġcompliance": 1897,
      "Ġstandards": 1898,
      "Ġhold": 1899,
      "Ġbeing": 1900,
      "Ġdistribution": 1901,
      "ĠAnnual": 1902,
      "ular": 1903,
      "Ġstat": 1904,
      "Ġrecover": 1905,
      "Ġrequires": 1906,
      "lass": 1907,
      "Ġbu": 1908,
      "ĠNew": 1909,
      "argin": 1910,
      "Ġbegin": 1911,
      "ividual": 1912,
      "ĠCredit": 1913,
      "ĠTO": 1914,
      "Ġlegal": 1915,
      "Ġprevious": 1916,
      "Ġdr": 1917,
      "ĠFDA": 1918,
      "Ġsee": 1919,
      "Ġconvert": 1920,
      "poses": 1921,
      "Ġ11": 1922,
      "apital": 1923,
      "Ġmaterially": 1924,
      "Al": 1925,
      "ationship": 1926,
      "Ad": 1927,
      "Ġdrug": 1928,
      "ield": 1929,
      "pl": 1930,
      "Ġreserv": 1931,
      "Ġk": 1932,
      "Ġresulting": 1933,
      "Ġcontribut": 1934,
      "Ġwhether": 1935,
      "ĠCompensation": 1936,
      "ables": 1937,
      "Ġpurposes": 1938,
      "Ġcomb": 1939,
      "arant": 1940,
      "Ġabout": 1941,
      "Ġevents": 1942,
      "Ġpatent": 1943,
      "33": 1944,
      "Ġleases": 1945,
      "Ġlevels": 1946,
      "duction": 1947,
      "ters": 1948,
      "Ġsever": 1949,
      "Ġshort": 1950,
      "Ġalloc": 1951,
      "Ġindividual": 1952,
      "Ġissuance": 1953,
      "Ġexpos": 1954,
      "Ġrestricted": 1955,
      "Ġlike": 1956,
      "Ġfurther": 1957,
      "Ġmargin": 1958,
      "Ġbro": 1959,
      "Ġreduce": 1960,
      "chi": 1961,
      "Ġexercise": 1962,
      "sequent": 1963,
      "ale": 1964,
      "18": 1965,
      "not": 1966,
      "Ġcalcul": 1967,
      "inion": 1968,
      "Ġbecause": 1969,
      "Ġofficers": 1970,
      "Ġmatur": 1971,
      "ysis": 1972,
      "Ġutil": 1973,
      "Ġsumm": 1974,
      "FAS": 1975,
      "af": 1976,
      "Ġfixed": 1977,
      "Ġparty": 1978,
      "Ġlicense": 1979,
      "Ġindependent": 1980,
      "itted": 1981,
      "urse": 1982,
      "Ġcirc": 1983,
      "Ġgovernment": 1984,
      "Ġmort": 1985,
      "ĠNOTE": 1986,
      "Ġrev": 1987,
      "Ġ2000": 1988,
      "Ġcorporate": 1989,
      "ĠCommon": 1990,
      "Ġprograms": 1991,
      "less": 1992,
      "eries": 1993,
      "Ġapproved": 1994,
      "ining": 1995,
      "Ġevent": 1996,
      "Â·": 1997,
      "ilut": 1998,
      "Ġdeliver": 1999,
      "Ġpres": 2000,
      "ĠOur": 2001,
      "ob": 2002,
      "ither": 2003,
      "ĠRE": 2004,
      "Ġremaining": 2005,
      "Ġbr": 2006,
      "ED": 2007,
      "hic": 2008,
      "ĠRegistr": 2009,
      "Ġacquisitions": 2010,
      "Ġorig": 2011,
      "port": 2012,
      "Ġitem": 2013,
      "ild": 2014,
      "Ġoil": 2015,
      "asing": 2016,
      "ĠSEC": 2017,
      "Ġvolum": 2018,
      "olving": 2019,
      "CO": 2020,
      "sive": 2021,
      "Ġcrit": 2022,
      "Ġnegative": 2023,
      "rehen": 2024,
      "to": 2025,
      "til": 2026,
      "Ġachi": 2027,
      "Ġrelating": 2028,
      "Ġsoftware": 2029,
      "Ġsince": 2030,
      "lobal": 2031,
      "ĠEqu": 2032,
      "Ġamended": 2033,
      "Ġfull": 2034,
      "Ġnecessary": 2035,
      "34": 2036,
      "ness": 2037,
      "Ġexcess": 2038,
      "rehensive": 2039,
      "Ġintangible": 2040,
      "Ġthousands": 2041,
      "Ġlife": 2042,
      "Ġresources": 2043,
      "Ġproceeds": 2044,
      "equ": 2045,
      "ĠQ": 2046,
      "ighted": 2047,
      "ĠCommission": 2048,
      "ĠTrust": 2049,
      "Ġexpend": 2050,
      "reciation": 2051,
      "Ġemploy": 2052,
      "Ġadopt": 2053,
      "Ex": 2054,
      "Under": 2055,
      "Ġsuccessful": 2056,
      "work": 2057,
      "17": 2058,
      "ĠCO": 2059,
      "Ġbillion": 2060,
      "sures": 2061,
      "Ġsame": 2062,
      "ound": 2063,
      "atives": 2064,
      "Ġfin": 2065,
      "ID": 2066,
      "Ġexam": 2067,
      "Ġpriv": 2068,
      "Ġactual": 2069,
      "Ġcircum": 2070,
      "Ġimplement": 2071,
      "Ġestablished": 2072,
      "ater": 2073,
      "lying": 2074,
      "ough": 2075,
      "Ġintegr": 2076,
      "Ġpercentage": 2077,
      "Ġrelationship": 2078,
      "Ġvalues": 2079,
      "AP": 2080,
      "Ġunit": 2081,
      "orn": 2082,
      "entive": 2083,
      "Ġcompetitive": 2084,
      "cribed": 2085,
      "ĠExhibit": 2086,
      "Ġcountr": 2087,
      "Ġforth": 2088,
      "Ġstud": 2089,
      "Ġbusinesses": 2090,
      "Ġaff": 2091,
      "ably": 2092,
      "ĠAs": 2093,
      "Ġnatural": 2094,
      "Ġsignificantly": 2095,
      "Ġimprove": 2096,
      "ĠPr": 2097,
      "Ġmany": 2098,
      "Ġequival": 2099,
      "Ġdetermine": 2100,
      "Ġmust": 2101,
      "Ġreceive": 2102,
      "ĠII": 2103,
      "stances": 2104,
      "Ġuntil": 2105,
      "ĠEur": 2106,
      "Ġguidance": 2107,
      "Ġcompleted": 2108,
      "Ġadministrative": 2109,
      "Ġsecurity": 2110,
      "Ġeng": 2111,
      "Ġfive": 2112,
      "orts": 2113,
      "ibility": 2114,
      "Ġsubstantial": 2115,
      "Ġamortization": 2116,
      "Ġtreat": 2117,
      "rel": 2118,
      "ov": 2119,
      "ĠMed": 2120,
      "Ġsubsidiary": 2121,
      "ients": 2122,
      "ote": 2123,
      "Ġcandidates": 2124,
      "Ġlikely": 2125,
      "Ġmult": 2126,
      "Ġeither": 2127,
      "Ġlarge": 2128,
      "ĠOn": 2129,
      "Ġreceivable": 2130,
      "Ġestimate": 2131,
      "ruction": 2132,
      "de": 2133,
      "oing": 2134,
      "itigation": 2135,
      "Ġgreat": 2136,
      "Ġinventory": 2137,
      "Ġbeliev": 2138,
      "Ġcircumstances": 2139,
      "wise": 2140,
      "====": 2141,
      "Ġattribut": 2142,
      "ĠLLC": 2143,
      "Ġexceed": 2144,
      "Ġlocal": 2145,
      "izes": 2146,
      "Ġequal": 2147,
      "Ġdecreased": 2148,
      "Ġgross": 2149,
      "Ġpartic": 2150,
      "Ġspecific": 2151,
      "Ġposs": 2152,
      "Ġeff": 2153,
      "ompanying": 2154,
      "ĠInt": 2155,
      "Ġdisclosure": 2156,
      "Ġmodel": 2157,
      "Ġcomponents": 2158,
      "venue": 2159,
      "Ġretain": 2160,
      "Ġcharges": 2161,
      "Ġarrangements": 2162,
      "Ġbefore": 2163,
      "Ġotherwise": 2164,
      "orth": 2165,
      "istered": 2166,
      "ĠOperations": 2167,
      "Ġke": 2168,
      "):": 2169,
      "ĠPh": 2170,
      "Ġemployee": 2171,
      "party": 2172,
      "UR": 2173,
      "ateral": 2174,
      "Ġcommun": 2175,
      "Ġbeginning": 2176,
      "ING": 2177,
      "Ġ&": 2178,
      "Ġunable": 2179,
      "ĠTax": 2180,
      "Ġopinion": 2181,
      "Ġbase": 2182,
      "Ġjudg": 2183,
      "Ġcharge": 2184,
      "irement": 2185,
      "Ġaccompanying": 2186,
      "Ġcommit": 2187,
      "----------------": 2188,
      "Ġlocated": 2189,
      "iveness": 2190,
      "Ġkn": 2191,
      "Ġparticular": 2192,
      "cing": 2193,
      "Ġpract": 2194,
      "Ġownership": 2195,
      "ories": 2196,
      "Ġadequ": 2197,
      "Ġextent": 2198,
      "40": 2199,
      "Ġconsidered": 2200,
      "yal": 2201,
      "Ġset": 2202,
      "Ġadoption": 2203,
      "Ġhistorical": 2204,
      "Ġclos": 2205,
      "ived": 2206,
      "ĠIncome": 2207,
      "ĠManagement": 2208,
      "Ġshould": 2209,
      "uctu": 2210,
      "Ġexpenditures": 2211,
      "Ġenter": 2212,
      "Ġweighted": 2213,
      "Ġowned": 2214,
      "Ġsuppli": 2215,
      "Ġguarant": 2216,
      "spect": 2217,
      "75": 2218,
      "Ġcannot": 2219,
      "tern": 2220,
      "Ġdescribed": 2221,
      "EM": 2222,
      "Ġboard": 2223,
      "ĠGen": 2224,
      "21": 2225,
      "icult": 2226,
      "Ġaccrued": 2227,
      "Ġwr": 2228,
      "ators": 2229,
      "rent": 2230,
      "Ġgains": 2231,
      "Ġmortgage": 2232,
      "ling": 2233,
      "Ġprodu": 2234,
      "pport": 2235,
      "Ġadd": 2236,
      "Ġsenior": 2237,
      "ĠINC": 2238,
      "Ġpreviously": 2239,
      "uc": 2240,
      "Ġappropri": 2241,
      "Ġapplications": 2242,
      "Ġherein": 2243,
      "However": 2244,
      "Ġann": 2245,
      "etary": 2246,
      "ĠFAS": 2247,
      "Ġprom": 2248,
      "Ġpersonnel": 2249,
      "Ġaccess": 2250,
      "Ġmanag": 2251,
      "Ġwithout": 2252,
      "ĠÂ·": 2253,
      "Ġgreater": 2254,
      "Ġpresented": 2255,
      "holder": 2256,
      "ĠDirector": 2257,
      "ĠNOTES": 2258,
      "See": 2259,
      "Ġsufficient": 2260,
      "Ġincreases": 2261,
      "lation": 2262,
      "Ġcomput": 2263,
      "Ġcapac": 2264,
      "Ġfluctu": 2265,
      "losures": 2266,
      "âĢĿ),": 2267,
      "Ġreduced": 2268,
      "Ġquality": 2269,
      "Management": 2270,
      "ĠGro": 2271,
      "Ġshareholders": 2272,
      "Ġderivative": 2273,
      "Ġtarg": 2274,
      "Ġpatents": 2275,
      "Ġsecond": 2276,
      "Ġbelieves": 2277,
      "Ġcli": 2278,
      "Ġgroup": 2279,
      "itive": 2280,
      "Ġdecl": 2281,
      "Ġprem": 2282,
      "Ġreduction": 2283,
      "Ġcontractual": 2284,
      "Ġreserves": 2285,
      "Ġdifficult": 2286,
      "Ġminimum": 2287,
      "ĠCan": 2288,
      "Ġcompar": 2289,
      "Ġenvironmental": 2290,
      "Additional": 2291,
      "Ġ28": 2292,
      "Ġ1999": 2293,
      "ey": 2294,
      "enced": 2295,
      "Ġpen": 2296,
      "epar": 2297,
      "ellect": 2298,
      "Ġpolicy": 2299,
      "ellectual": 2300,
      "11": 2301,
      "ATION": 2302,
      "Ġdollar": 2303,
      "ĠControl": 2304,
      "ĠPartn": 2305,
      "ron": 2306,
      "lex": 2307,
      "Ġcause": 2308,
      "Ġorgan": 2309,
      "ĠOther": 2310,
      "Ġ16": 2311,
      "ĠSection": 2312,
      "Ġprovision": 2313,
      "Ġretail": 2314,
      "Ġprinciples": 2315,
      "Ġ0": 2316,
      "Ġpricing": 2317,
      "Ġsupply": 2318,
      "Ġlead": 2319,
      "Ġliquidity": 2320,
      "Ġrele": 2321,
      "orld": 2322,
      "Ġcollateral": 2323,
      "BS": 2324,
      "man": 2325,
      "acy": 2326,
      "olutions": 2327,
      "Ġthen": 2328,
      "aking": 2329,
      "Ġentity": 2330,
      "âĢĿ).": 2331,
      "Ġcomprehensive": 2332,
      "Ġselling": 2333,
      "Ġforward": 2334,
      "ĠDisc": 2335,
      "Ġsubstantially": 2336,
      "Ġconsideration": 2337,
      "Ġaccounted": 2338,
      "Ġtrading": 2339,
      "ĠServices": 2340,
      "idential": 2341,
      "emb": 2342,
      "Ġcompetitors": 2343,
      "ĠEurope": 2344,
      "ĠCapital": 2345,
      "ĠPre": 2346,
      "Ġcontinu": 2347,
      "Ġatt": 2348,
      "Ġkey": 2349,
      "Ġconf": 2350,
      "ĠFac": 2351,
      "Ġpurchased": 2352,
      "Ġseveral": 2353,
      "Ġdev": 2354,
      "Ġ(\"": 2355,
      "Ġdays": 2356,
      "Ġbecome": 2357,
      "pportun": 2358,
      "ĠFASB": 2359,
      "Ġmatters": 2360,
      "Ġinternational": 2361,
      "Ġinput": 2362,
      "Ġoperate": 2363,
      "24": 2364,
      "Ġel": 2365,
      "Ġmaterials": 2366,
      "Ġseek": 2367,
      "30": 2368,
      "rs": 2369,
      "Int": 2370,
      "Ġamend": 2371,
      "Ġassessment": 2372,
      "Ġte": 2373,
      "Ġadjustments": 2374,
      "Ġnetwork": 2375,
      "Ġrecent": 2376,
      "Ġimm": 2377,
      "Ġprob": 2378,
      "alf": 2379,
      "Continued": 2380,
      "Ġoffering": 2381,
      "Ġadopted": 2382,
      "Ġem": 2383,
      "ulation": 2384,
      "ĠSu": 2385,
      "Ġborrowings": 2386,
      "ĠCanad": 2387,
      "Ġactivity": 2388,
      "Ġappropriate": 2389,
      "Pro": 2390,
      "Ġvi": 2391,
      "ĠInvest": 2392,
      "urrent": 2393,
      "Ġconstruction": 2394,
      "Ġsheet": 2395,
      "Re": 2396,
      "Ġdilut": 2397,
      "though": 2398,
      "side": 2399,
      "Ġtrials": 2400,
      "tenance": 2401,
      "Ġefforts": 2402,
      "Ġpower": 2403,
      "Ġpatients": 2404,
      "ĠAr": 2405,
      "Ġeffectiveness": 2406,
      "Ġpreferred": 2407,
      ",âĢĿ": 2408,
      "Ġprevent": 2409,
      "Ġquarterly": 2410,
      "Ġsepar": 2411,
      "Ġreports": 2412,
      "Ġcent": 2413,
      "Ġ18": 2414,
      "22": 2415,
      "ĠFederal": 2416,
      "Ġintellectual": 2417,
      "Ġopportun": 2418,
      "Ġdam": 2419,
      "version": 2420,
      "Based": 2421,
      "ingly": 2422,
      "Ġlitigation": 2423,
      "umulated": 2424,
      "Ġexcept": 2425,
      "ĠBusiness": 2426,
      "Ġtechnologies": 2427,
      "ocus": 2428,
      "Ġtrade": 2429,
      "Ġdeposits": 2430,
      "Ġord": 2431,
      "Ġrecognition": 2432,
      "ĠVice": 2433,
      "ler": 2434,
      "Ġsubsequent": 2435,
      "Ġwarrants": 2436,
      "come": 2437,
      "ury": 2438,
      "edi": 2439,
      "Ġcountries": 2440,
      "Ġcre": 2441,
      "Ġfunct": 2442,
      "Ġentities": 2443,
      "Ġplus": 2444,
      "ĠRegistrant": 2445,
      "Â®": 2446,
      "ĠLoan": 2447,
      "Ġcor": 2448,
      "imb": 2449,
      "All": 2450,
      "ĠNet": 2451,
      "uch": 2452,
      "Ġsaf": 2453,
      "Ġdid": 2454,
      "ĠSp": 2455,
      "Ġactions": 2456,
      "Ġinitial": 2457,
      "atis": 2458,
      "Ġpost": 2459,
      "Ġdown": 2460,
      "ili": 2461,
      "uel": 2462,
      "Ġconsult": 2463,
      "cer": 2464,
      "xy": 2465,
      "Ġprimary": 2466,
      "Any": 2467,
      "ĠGroup": 2468,
      "ina": 2469,
      "Ġ1998": 2470,
      "Ġdesigned": 2471,
      "Ġvolume": 2472,
      "related": 2473,
      "enture": 2474,
      "Ġholders": 2475,
      "________": 2476,
      "hes": 2477,
      "Ġdecline": 2478,
      "Other": 2479,
      "Ġresulted": 2480,
      "ĠAmerica": 2481,
      "going": 2482,
      "Ġspecial": 2483,
      "Ġattributable": 2484,
      "of": 2485,
      "Ġthem": 2486,
      "Ġcare": 2487,
      "ĠSU": 2488,
      "Ġrules": 2489,
      "ext": 2490,
      "by": 2491,
      "lor": 2492,
      "ensed": 2493,
      "Ġ25": 2494,
      "Ġmaintenance": 2495,
      "Ġaccepted": 2496,
      "Ġtreatment": 2497,
      "orable": 2498,
      "ĠUS": 2499,
      "ĠInternal": 2500,
      "Ġcollabor": 2501,
      "Ġprivate": 2502,
      "sue": 2503,
      "Ġfocus": 2504,
      "Ġserved": 2505,
      "Ġitems": 2506,
      "ral": 2507,
      "ĠMarket": 2508,
      "Ġinterests": 2509,
      "Ġfailure": 2510,
      "ares": 2511,
      "ĠSc": 2512,
      "Ġglobal": 2513,
      "Ġclassified": 2514,
      "ĠASU": 2515,
      "Ġbuild": 2516,
      "St": 2517,
      "Ġfee": 2518,
      "Ġpartially": 2519,
      "Ġmaturity": 2520,
      "Ġmemb": 2521,
      "Ġline": 2522,
      "ĠSenior": 2523,
      "Ġoffice": 2524,
      "Ġapplication": 2525,
      "Ġcapacity": 2526,
      "Ġplace": 2527,
      "Ġevaluation": 2528,
      "force": 2529,
      "23": 2530,
      "ĠAl": 2531,
      "aint": 2532,
      "ĠRel": 2533,
      "Ġfully": 2534,
      "mall": 2535,
      "Ġpension": 2536,
      "tract": 2537,
      "Ġamortized": 2538,
      "Ġregistr": 2539,
      "ĠTrans": 2540,
      "Ġpremium": 2541,
      "ĠFund": 2542,
      "Ġoverall": 2543,
      "Ġjoint": 2544,
      "ering": 2545,
      "ime": 2546,
      "âĢ¢": 2547,
      "Ġvolat": 2548,
      "clus": 2549,
      "Ġten": 2550,
      "Ġpenal": 2551,
      "care": 2552,
      "Ġpred": 2553,
      "ĠSeries": 2554,
      "Ġrepurchase": 2555,
      "lied": 2556,
      "Additionally": 2557,
      "ĠShare": 2558,
      "Ġsur": 2559,
      "Ġestablish": 2560,
      "ĠFacility": 2561,
      "ier": 2562,
      "Ġsatis": 2563,
      "\")": 2564,
      "ph": 2565,
      "Ġsegments": 2566,
      "Ġanalysis": 2567,
      "Ġreimb": 2568,
      "izations": 2569,
      "Acc": 2570,
      "Ġrelationships": 2571,
      "serv": 2572,
      "ĠCal": 2573,
      "Ġdirectly": 2574,
      "Ġsettlement": 2575,
      "Ġdifferent": 2576,
      "ĠEquity": 2577,
      "Ġequivalents": 2578,
      "ĠSub": 2579,
      "Ġexclud": 2580,
      "anch": 2581,
      "Ġmedical": 2582,
      "Ġaward": 2583,
      "Ġworld": 2584,
      "dict": 2585,
      "Ġpast": 2586,
      "Ġded": 2587,
      "Ġconversion": 2588,
      "Ġsummar": 2589,
      "Ġcomply": 2590,
      "Ġpoint": 2591,
      "AC": 2592,
      "MP": 2593,
      "ross": 2594,
      "ĠCo": 2595,
      "Ġhis": 2596,
      "Ġcoven": 2597,
      "Ġwhol": 2598,
      "Ġfav": 2599,
      "Ġroyal": 2600,
      "Ġconsumer": 2601,
      "Ġcoverage": 2602,
      "Ġworking": 2603,
      "Ġeffects": 2604,
      "aceut": 2605,
      "Ġpositions": 2606,
      "ish": 2607,
      "Ġtrust": 2608,
      "Ġ50": 2609,
      "armaceut": 2610,
      "uris": 2611,
      "Ġconvertible": 2612,
      "RO": 2613,
      "ault": 2614,
      "Ġconting": 2615,
      "Ġobligation": 2616,
      "Ġindustr": 2617,
      "Ġfirm": 2618,
      "Ġwhile": 2619,
      "ructuring": 2620,
      "Ġexposure": 2621,
      "Ġinputs": 2622,
      "ule": 2623,
      "Ġoutside": 2624,
      "Ġachieve": 2625,
      "ner": 2626,
      "ingle": 2627,
      "Ġnote": 2628,
      "ĠNorth": 2629,
      "Ġrelative": 2630,
      "Ġtarget": 2631,
      "armaceutical": 2632,
      "cri": 2633,
      "eria": 2634,
      "Ġcase": 2635,
      "sec": 2636,
      "iring": 2637,
      "Ġdisp": 2638,
      "ĠOr": 2639,
      "Ġtiming": 2640,
      "Ġ100": 2641,
      "Ġrealized": 2642,
      "Ġpossible": 2643,
      "Ġtechn": 2644,
      "Ġ29": 2645,
      "Ġofficer": 2646,
      "Ġdiscussed": 2647,
      "Ġfourth": 2648,
      "emed": 2649,
      "Mr": 2650,
      "Ġinvolv": 2651,
      "Ġunderlying": 2652,
      "AAP": 2653,
      "Ġmanage": 2654,
      "ource": 2655,
      "Ġentit": 2656,
      "Ġneeds": 2657,
      "ĠClass": 2658,
      "ĠFr": 2659,
      "ograp": 2660,
      "Ġselect": 2661,
      "ging": 2662,
      "Ġbre": 2663,
      "Ġlow": 2664,
      "Ġsuppliers": 2665,
      "Ġdelivery": 2666,
      "urisdict": 2667,
      "idence": 2668,
      "Ġcontinued": 2669,
      "Ġge": 2670,
      "Ġaccumulated": 2671,
      "Ġstatut": 2672,
      "net": 2673,
      "essional": 2674,
      "Ġ1997": 2675,
      "500": 2676,
      "ĠSFAS": 2677,
      "Ġjurisdict": 2678,
      "Ġratio": 2679,
      "35": 2680,
      "Ġ/": 2681,
      "ales": 2682,
      "Ġinstitutions": 2683,
      "Ġsources": 2684,
      "Ġlarg": 2685,
      "Ġtimely": 2686,
      "Ġadequate": 2687,
      "ici": 2688,
      "Ġrepl": 2689,
      "Ġtermination": 2690,
      "Ġdeposit": 2691,
      "Ġanticipated": 2692,
      "60": 2693,
      "IES": 2694,
      "Ġsecured": 2695,
      "POR": 2696,
      "Ġmonit": 2697,
      "Comp": 2698,
      "To": 2699,
      "%.": 2700,
      "Ġland": 2701,
      "rend": 2702,
      "Ġrenew": 2703,
      "IB": 2704,
      "Ġsingle": 2705,
      "Ġexecut": 2706,
      "Ġadjustment": 2707,
      "Ġclosing": 2708,
      "TS": 2709,
      "Ġevaluating": 2710,
      "Ġadjusted": 2711,
      "Ġhighly": 2712,
      "Ġcomponent": 2713,
      "Ġaction": 2714,
      "Ġaudits": 2715,
      "Ġrestrictions": 2716,
      "Ġopen": 2717,
      "resents": 2718,
      "Ġrecognize": 2719,
      "Ġtypically": 2720,
      "Ġlist": 2721,
      "ĠLe": 2722,
      "Ġdividend": 2723,
      "prietary": 2724,
      "Ġbeh": 2725,
      "Ġtra": 2726,
      "Ġcriteria": 2727,
      "aring": 2728,
      "Ġprotect": 2729,
      "Ġdom": 2730,
      "Ġdirector": 2731,
      "evel": 2732,
      "Ġmeasurement": 2733,
      "omes": 2734,
      "ayment": 2735,
      "Ġmax": 2736,
      "loss": 2737,
      "ppro": 2738,
      "Ġrange": 2739,
      "ĠStandard": 2740,
      "26": 2741,
      "Ġbalances": 2742,
      "ĠASC": 2743,
      "28": 2744,
      "ins": 2745,
      "Ġcompr": 2746,
      "Ġdisclosures": 2747,
      "Ġreasonably": 2748,
      "Ġmajority": 2749,
      "Ġemployment": 2750,
      "27": 2751,
      "cast": 2752,
      "reas": 2753,
      "Ġ27": 2754,
      "Ġoriginal": 2755,
      "ple": 2756,
      "Net": 2757,
      "Ġtake": 2758,
      "Ġ17": 2759,
      "izing": 2760,
      "Ġfinal": 2761,
      "Ġstruct": 2762,
      "ĠInformation": 2763,
      "Ġleast": 2764,
      "Ġ40": 2765,
      "Ġproprietary": 2766,
      "ĠAC": 2767,
      "Ġexpand": 2768,
      "Ġagencies": 2769,
      "Ġenh": 2770,
      "Ġprotection": 2771,
      "ees": 2772,
      "olve": 2773,
      "Ġund": 2774,
      "Ġfunding": 2775,
      "aff": 2776,
      "lies": 2777,
      "Ġsolutions": 2778,
      "ĠCash": 2779,
      "ĠHold": 2780,
      "UN": 2781,
      "ind": 2782,
      "Ġtransfer": 2783,
      "Ġfluctuations": 2784,
      "Ġtrend": 2785,
      "Ġsmall": 2786,
      "aration": 2787,
      "Ġreturns": 2788,
      "Ġprospect": 2789,
      "iforn": 2790,
      "Ġsafety": 2791,
      "Ġpenalties": 2792,
      "ifornia": 2793,
      "ged": 2794,
      "Ġincreasing": 2795,
      "porary": 2796,
      "Ġtem": 2797,
      "see": 2798,
      "Ġprojects": 2799,
      "Ġcommitments": 2800,
      "Ġexpress": 2801,
      "ĠInst": 2802,
      "ĠTh": 2803,
      "ourt": 2804,
      "Ġcompetition": 2805,
      "ĠYork": 2806,
      "inate": 2807,
      "Ġconcer": 2808,
      "ocu": 2809,
      "Ġdepreciation": 2810,
      "Ġstrategy": 2811,
      "Ch": 2812,
      "US": 2813,
      "read": 2814,
      "Ġaffili": 2815,
      "Wh": 2816,
      "Ġmil": 2817,
      "ĠCod": 2818,
      "Ġlabor": 2819,
      "Ġinvestors": 2820,
      "Ġdefault": 2821,
      "Ġdifferences": 2822,
      "umer": 2823,
      "Ġdelay": 2824,
      "Ġyield": 2825,
      "lived": 2826,
      "aging": 2827,
      "Ġauthorized": 2828,
      "ebt": 2829,
      "inary": 2830,
      "erger": 2831,
      "Ġcomplete": 2832,
      "Ġlimitations": 2833,
      "Ġmultip": 2834,
      "ĠPreferred": 2835,
      "RE": 2836,
      "Ġcateg": 2837,
      "Ġdiffer": 2838,
      "Ġtesting": 2839,
      "CE": 2840,
      "ursuant": 2841,
      "ĠCourt": 2842,
      "ĠSystem": 2843,
      "ĠPublic": 2844,
      "Ġquot": 2845,
      "Ġdeveloped": 2846,
      "Ġharm": 2847,
      "Ġusef": 2848,
      "Ġspecified": 2849,
      "Ġclients": 2850,
      "Ġuseful": 2851,
      "ded": 2852,
      "Ġcr": 2853,
      "Ġareas": 2854,
      "Accord": 2855,
      "Ġult": 2856,
      "Ġair": 2857,
      "Ġweb": 2858,
      "IDI": 2859,
      "Ġcovenants": 2860,
      "Ġgenerated": 2861,
      "Ġnext": 2862,
      "ĠRest": 2863,
      "Ġimport": 2864,
      "Ġtaxable": 2865,
      "ĠCalifornia": 2866,
      "itative": 2867,
      "oring": 2868,
      "ĠProper": 2869,
      "ĠEnergy": 2870,
      "ĠSUBS": 2871,
      "entures": 2872,
      "Ġaltern": 2873,
      "Ġregistered": 2874,
      "Ġagre": 2875,
      "Ġprofessional": 2876,
      "Ġhealthcare": 2877,
      "Although": 2878,
      "Ġve": 2879,
      "Ġcert": 2880,
      "abilities": 2881,
      "Ġacquire": 2882,
      "Ġhedge": 2883,
      "Ġresponsible": 2884,
      "ores": 2885,
      "itten": 2886,
      "Ġvolatility": 2887,
      "Ġreimburse": 2888,
      "aud": 2889,
      "Ġfuel": 2890,
      "Ġ1996": 2891,
      "ĠSUBSIDI": 2892,
      "29": 2893,
      "Ġtherap": 2894,
      "Ġthings": 2895,
      "ĠPer": 2896,
      "Ġopportunities": 2897,
      "Ġobject": 2898,
      "Ġunre": 2899,
      "Ġcontinuing": 2900,
      "Ġmembers": 2901,
      "Ġsw": 2902,
      "Ġmer": 2903,
      "opic": 2904,
      "ĠMedic": 2905,
      "ĠGeneral": 2906,
      "Ġshall": 2907,
      "alized": 2908,
      "Ġoperation": 2909,
      "Ġentitled": 2910,
      "land": 2911,
      "Ġlonger": 2912,
      "Such": 2913,
      "ĠFir": 2914,
      "Ġdependent": 2915,
      "Ġindicated": 2916,
      "ĠAssets": 2917,
      "Ġdeduct": 2918,
      "hem": 2919,
      "other": 2920,
      "Ġenergy": 2921,
      "Ġmeasured": 2922,
      "Ġvesting": 2923,
      "ĠSUBSIDIAR": 2924,
      "Con": 2925,
      "yn": 2926,
      "Ġ24": 2927,
      "SU": 2928,
      "state": 2929,
      "ĠHe": 2930,
      "ĠVal": 2931,
      "aged": 2932,
      "Ġissue": 2933,
      "Ġreserve": 2934,
      "ĠRevenue": 2935,
      "While": 2936,
      "iff": 2937,
      "ĠMan": 2938,
      "off": 2939,
      "ick": 2940,
      "oting": 2941,
      "Ġinstall": 2942,
      "Ġelim": 2943,
      "ention": 2944,
      "anced": 2945,
      "Ġothers": 2946,
      "ĠExp": 2947,
      "Ġnature": 2948,
      "Ġconducted": 2949,
      "Ġ--------": 2950,
      "otal": 2951,
      "herent": 2952,
      "ĠAc": 2953,
      "emn": 2954,
      "Ġautom": 2955,
      "Ġbroad": 2956,
      "estic": 2957,
      "ĠBl": 2958,
      "Ġ198": 2959,
      "Ġimpacted": 2960,
      "Ġauthorities": 2961,
      ".âĢĿ": 2962,
      "Ġ26": 2963,
      "Ġongoing": 2964,
      "anging": 2965,
      "Ġcommunic": 2966,
      "Ġday": 2967,
      "Ġelig": 2968,
      "lose": 2969,
      "Ġra": 2970,
      "ĠMe": 2971,
      "oking": 2972,
      "Ġrevolving": 2973,
      "ĠQu": 2974,
      "Ġ--": 2975,
      "issions": 2976,
      "Ġexperienced": 2977,
      "Ġholding": 2978,
      "Ġfinance": 2979,
      "Ġcarri": 2980,
      "Ġconsists": 2981,
      "ites": 2982,
      "acc": 2983,
      "Ġdetail": 2984,
      "Ġrestructuring": 2985,
      "ĠProduct": 2986,
      "Ġdiscussion": 2987,
      "hold": 2988,
      "ĠFor": 2989,
      "Ġproviders": 2990,
      "Further": 2991,
      "Ġreli": 2992,
      "TER": 2993,
      "Ġproceedings": 2994,
      "inations": 2995,
      "atform": 2996,
      "sel": 2997,
      "Ġpreparation": 2998,
      "Ġmanufacturers": 2999,
      "Ġjudgment": 3000,
      "TR": 3001,
      "enn": 3002,
      "Ġbehalf": 3003,
      "Accordingly": 3004,
      "It": 3005,
      "wide": 3006,
      "ery": 3007,
      "ator": 3008,
      "Ġinherent": 3009,
      "ĠRec": 3010,
      "Ġprofitability": 3011,
      "Ġagreed": 3012,
      "urt": 3013,
      "Ġ21": 3014,
      "osp": 3015,
      "Ġplant": 3016,
      "Ġattract": 3017,
      "law": 3018,
      "err": 3019,
      "Ġcaus": 3020,
      "edness": 3021,
      "Ġincentive": 3022,
      "Ġcover": 3023,
      "ensive": 3024,
      "Ġsubm": 3025,
      "Ġbanking": 3026,
      "Ġiniti": 3027,
      "Interest": 3028,
      "PA": 3029,
      "ises": 3030,
      "Ġadvert": 3031,
      "Ġrepresents": 3032,
      "Ġdepend": 3033,
      "Ġpredict": 3034,
      "ĠIs": 3035,
      "Ġback": 3036,
      "Ġlines": 3037,
      "ĠShe": 3038,
      "Ġearly": 3039,
      "Ġnegatively": 3040,
      "Ġimmedi": 3041,
      "SE": 3042,
      "Ġtransport": 3043,
      "aken": 3044,
      "Ġstrategic": 3045,
      "Ġmaking": 3046,
      "Ġeffic": 3047,
      "Ġproviding": 3048,
      "Ġpurchases": 3049,
      "posed": 3050,
      "Ġpar": 3051,
      "Ġbi": 3052,
      "ults": 3053,
      "ĠBal": 3054,
      "Ġactive": 3055,
      "Ġperformed": 3056,
      "Ġprocesses": 3057,
      "Ġassumed": 3058,
      "ebtedness": 3059,
      "vant": 3060,
      "illing": 3061,
      "Fr": 3062,
      "ĠSout": 3063,
      "Ġcomplex": 3064,
      "ĠLi": 3065,
      "Ġregulation": 3066,
      "Ġcombination": 3067,
      "200": 3068,
      "orp": 3069,
      "Ġrespective": 3070,
      "Ġcompete": 3071,
      "cription": 3072,
      "Ġvehic": 3073,
      "ĠMat": 3074,
      "ĠTechnolog": 3075,
      "Ġearned": 3076,
      "Ġgenerate": 3077,
      "Ġbrand": 3078,
      "Ġmeasures": 3079,
      "ĠPartnership": 3080,
      "Ġvariety": 3081,
      "ker": 3082,
      "Ġins": 3083,
      "icial": 3084,
      "quisition": 3085,
      "Ġhowever": 3086,
      "ouse": 3087,
      "Ġ1934": 3088,
      "allen": 3089,
      "recogn": 3090,
      "umulative": 3091,
      "ĠStandards": 3092,
      "tax": 3093,
      "dule": 3094,
      "Ġvariable": 3095,
      "Ġreflected": 3096,
      "Ġens": 3097,
      "Ġcy": 3098,
      "Ġdistributions": 3099,
      "Ġwritten": 3100,
      "Ġmaximum": 3101,
      "ĠSUBSIDIARIES": 3102,
      "Ġdates": 3103,
      "emark": 3104,
      "Ġtherefore": 3105,
      "Ġfavorable": 3106,
      "ks": 3107,
      "Ġcases": 3108,
      "ecause": 3109,
      "Ġindebtedness": 3110,
      "ĠCanada": 3111,
      "38": 3112,
      "LO": 3113,
      "Ġbo": 3114,
      "Ġ($": 3115,
      "rupt": 3116,
      "Ġtotaled": 3117,
      "VE": 3118,
      "aired": 3119,
      "ipp": 3120,
      "Ġcle": 3121,
      "ception": 3122,
      "Ġexclus": 3123,
      "ivity": 3124,
      "Ġhead": 3125,
      "Ġknown": 3126,
      "Ġsched": 3127,
      "Ġrent": 3128,
      "Ġpartners": 3129,
      "junct": 3130,
      "ou": 3131,
      "Ġmis": 3132,
      "Ġlives": 3133,
      "ĠOff": 3134,
      "Ġavailability": 3135,
      "Ġphys": 3136,
      "AT": 3137,
      "HE": 3138,
      "IR": 3139,
      "ras": 3140,
      "te": 3141,
      "Ġintended": 3142,
      "Ġreceivables": 3143,
      "Ġred": 3144,
      "Ġ23": 3145,
      "mploye": 3146,
      "Ġaddress": 3147,
      "mb": 3148,
      "Ġ60": 3149,
      "45": 3150,
      "ences": 3151,
      "ĠIncentive": 3152,
      "Ġbanks": 3153,
      "Ġissues": 3154,
      "ĠOperating": 3155,
      "Ġcalculated": 3156,
      "Ġsuccessfully": 3157,
      "way": 3158,
      "Ġrein": 3159,
      "udit": 3160,
      "rior": 3161,
      "Ġcarryfor": 3162,
      "Ġarrangement": 3163,
      "Ġexample": 3164,
      "Ġcell": 3165,
      "Ġnam": 3166,
      "Ġdeemed": 3167,
      "igned": 3168,
      "fe": 3169,
      "Ġapproach": 3170,
      "Ġquant": 3171,
      "retion": 3172,
      "hedule": 3173,
      "Ġlast": 3174,
      "ffective": 3175,
      "emic": 3176,
      "ĠChina": 3177,
      "ifying": 3178,
      "Ġsatisf": 3179,
      "Because": 3180,
      "ĠLevel": 3181,
      "Ġpersons": 3182,
      "Ġgeograp": 3183,
      "Ġswap": 3184,
      "time": 3185,
      "Ġsix": 3186,
      "Ġdocu": 3187,
      "Ġchallen": 3188,
      "Ġqualified": 3189,
      "PS": 3190,
      "Ġhome": 3191,
      "olution": 3192,
      "Ġrecovery": 3193,
      "ley": 3194,
      "ormal": 3195,
      "Ġspace": 3196,
      "centr": 3197,
      "39": 3198,
      "Ġdiv": 3199,
      "ĠAt": 3200,
      "Ġalle": 3201,
      "arters": 3202,
      "ternal": 3203,
      "Ġevidence": 3204,
      "Ġconsistent": 3205,
      "Ġviol": 3206,
      "pect": 3207,
      "Ġstores": 3208,
      "Ġdomestic": 3209,
      "recognized": 3210,
      "site": 3211,
      "Ġplatform": 3212,
      "includ": 3213,
      "ĠInternational": 3214,
      "................": 3215,
      "ĠHoldings": 3216,
      "Ġmight": 3217,
      "ĠOwn": 3218,
      "servable": 3219,
      "Ġcontingent": 3220,
      "Ġmultiple": 3221,
      "ĠCOR": 3222,
      "Ġuses": 3223,
      "Ġcharg": 3224,
      "Ġallocated": 3225,
      "Ġpractices": 3226,
      "Ġwholly": 3227,
      "36": 3228,
      "Ġfre": 3229,
      "Ġexpire": 3230,
      "Ġrequest": 3231,
      "Ġeligible": 3232,
      "Ġâ": 3233,
      "arb": 3234,
      "vered": 3235,
      "lements": 3236,
      "Ġrating": 3237,
      "Ġremed": 3238,
      "100": 3239,
      "ios": 3240,
      "ool": 3241,
      "truct": 3242,
      "ĠRisk": 3243,
      "Ġmanner": 3244,
      "Ġreplace": 3245,
      "ĠSec": 3246,
      "Ġcovered": 3247,
      "Ġunp": 3248,
      "ĠTex": 3249,
      "Ġca": 3250,
      "Ġ1995": 3251,
      "ERS": 3252,
      "ĠYear": 3253,
      "aight": 3254,
      "Ġconsolid": 3255,
      "Ġrental": 3256,
      "ved": 3257,
      "vision": 3258,
      "Ġresidential": 3259,
      "elve": 3260,
      "sured": 3261,
      "Ġinfring": 3262,
      "ĠShares": 3263,
      "Ġdisposition": 3264,
      "Ġtemporary": 3265,
      "cluded": 3266,
      "ĠGovern": 3267,
      "Ġpartner": 3268,
      "Ġindemn": 3269,
      "ĠTaxes": 3270,
      "reasury": 3271,
      "80": 3272,
      "Ġstates": 3273,
      "ĠPurchase": 3274,
      "ignificant": 3275,
      "Ġstraight": 3276,
      "Ġresponsibility": 3277,
      "Ġengine": 3278,
      "LA": 3279,
      "Ġdeg": 3280,
      "Ġretirement": 3281,
      "Ġtwelve": 3282,
      "ĠRelated": 3283,
      "Ġcall": 3284,
      "Ġdivers": 3285,
      "Ġimpaired": 3286,
      "ights": 3287,
      "Ġcompletion": 3288,
      "Ġdiluted": 3289,
      "Ġjurisdictions": 3290,
      "37": 3291,
      "Sh": 3292,
      "back": 3293,
      "Ġcumulative": 3294,
      "Ġeffectively": 3295,
      "Ġcapitalized": 3296,
      "Ġelectron": 3297,
      "ĠCode": 3298,
      "including": 3299,
      "date": 3300,
      "ton": 3301,
      "ĠTerm": 3302,
      "ĠLim": 3303,
      "Ġfeat": 3304,
      "Ġevaluate": 3305,
      "Ġdise": 3306,
      "Ġhand": 3307,
      "Ġcourse": 3308,
      "Ġunless": 3309,
      "Ġcommod": 3310,
      "Ġgrants": 3311,
      "Ġlocations": 3312,
      "Ġlegis": 3313,
      "ĠTexas": 3314,
      "Ġbond": 3315,
      "ĠBenef": 3316,
      "Ġcommittee": 3317,
      "Ġunderw": 3318,
      "ĠAmend": 3319,
      "Ġidentified": 3320,
      "Ġinvolved": 3321,
      "CA": 3322,
      "eed": 3323,
      "Ġvary": 3324,
      "Ġoperational": 3325,
      "velopment": 3326,
      "Ġenforce": 3327,
      "qual": 3328,
      "Ġinvolve": 3329,
      "Ġimprovements": 3330,
      "ME": 3331,
      "Ġrede": 3332,
      "emp": 3333,
      "Ġtrends": 3334,
      "Gen": 3335,
      "Ġroyalty": 3336,
      "No": 3337,
      "Note": 3338,
      "aur": 3339,
      "pret": 3340,
      "ving": 3341,
      "Ġarea": 3342,
      "ĠData": 3343,
      "ework": 3344,
      "Ġdeveloping": 3345,
      "Ġannually": 3346,
      "Ġlicenses": 3347,
      "Ġformer": 3348,
      "Ġpersonal": 3349,
      "Ġsheets": 3350,
      "Am": 3351,
      "iqu": 3352,
      "ather": 3353,
      "round": 3354,
      "Ġnormal": 3355,
      "amework": 3356,
      "owned": 3357,
      "ART": 3358,
      "Ġinstitution": 3359,
      "ĠBalance": 3360,
      "Ġ22": 3361,
      "Ġfranch": 3362,
      "emption": 3363,
      "Ġinterim": 3364,
      "Ġobtained": 3365,
      "avings": 3366,
      "Ġunrealized": 3367,
      "Ġcharged": 3368,
      "ned": 3369,
      "any": 3370,
      "Ġcard": 3371,
      "Ġstore": 3372,
      "Ġventure": 3373,
      "Ġinvestig": 3374,
      "Ġdetermining": 3375,
      "Ġpermitted": 3376,
      "Ġstatus": 3377,
      "Ġreimbursement": 3378,
      "Ġensure": 3379,
      "49": 3380,
      "Ġread": 3381,
      "Ġunrecognized": 3382,
      "Ġenvironment": 3383,
      "Ġdamages": 3384,
      "airman": 3385,
      "anged": 3386,
      "hibits": 3387,
      "Ġadvertising": 3388,
      "55": 3389,
      "gth": 3390,
      "uthor": 3391,
      "Ġstated": 3392,
      "Ġvoting": 3393,
      "istics": 3394,
      "oodwill": 3395,
      "ĠProxy": 3396,
      "Ġdistributors": 3397,
      "70": 3398,
      "Ġnational": 3399,
      "oles": 3400,
      "Ġanticipate": 3401,
      "Ġcritical": 3402,
      "Ġseparate": 3403,
      "Ġquoted": 3404,
      "Sub": 3405,
      "TING": 3406,
      "co": 3407,
      "ensing": 3408,
      "Ġmonthly": 3409,
      "Ġtypes": 3410,
      "SO": 3411,
      "ane": 3412,
      "Ġconform": 3413,
      "illed": 3414,
      "ology": 3415,
      "Ġofferings": 3416,
      "Ġstudies": 3417,
      "Ġcomparable": 3418,
      "Ġtele": 3419,
      "tructure": 3420,
      "Ġpending": 3421,
      "celer": 3422,
      "Ġlend": 3423,
      "Ġgiven": 3424,
      "ĠReporting": 3425,
      "Ġsole": 3426,
      "Ġpresentation": 3427,
      "SI": 3428,
      "ifications": 3429,
      "Ġconsisted": 3430,
      "Ġadvis": 3431,
      "CH": 3432,
      "here": 3433,
      "Ġpa": 3434,
      "ico": 3435,
      "Ġsuper": 3436,
      "Ġknow": 3437,
      "Ġrelevant": 3438,
      "Ġcomprised": 3439,
      "ĠHealth": 3440,
      "48": 3441,
      "QU": 3442,
      "earch": 3443,
      "ĠAnal": 3444,
      "Ġaudited": 3445,
      "Ġprocessing": 3446,
      "iii": 3447,
      "ĠSupp": 3448,
      "Ĺı": 3449,
      "Ġapply": 3450,
      "Ġoccurred": 3451,
      "ĠAmerican": 3452,
      "Ġintro": 3453,
      "elines": 3454,
      "posal": 3455,
      "ĠAmendment": 3456,
      "ah": 3457,
      "Ġreferred": 3458,
      "acter": 3459,
      "Ġdelays": 3460,
      "junction": 3461,
      "ĠCent": 3462,
      "istrict": 3463,
      "Ġdetermination": 3464,
      "Ġannoun": 3465,
      "Comm": 3466,
      "ansion": 3467,
      "vertible": 3468,
      "Ġreflects": 3469,
      "Ġpartnership": 3470,
      "Ġsigned": 3471,
      "Ġuncertainty": 3472,
      "Ġmargins": 3473,
      "obile": 3474,
      "Ġorders": 3475,
      "com": 3476,
      "ipt": 3477,
      "Ġsets": 3478,
      "quare": 3479,
      "Ġdeal": 3480,
      "ĠOption": 3481,
      "Ġdoub": 3482,
      "ĠIndex": 3483,
      "Ġachiev": 3484,
      "Res": 3485,
      "pro": 3486,
      "ĠZ": 3487,
      "Ġwater": 3488,
      "Ġthroughout": 3489,
      "46": 3490,
      "ĠAudit": 3491,
      "Ġforecast": 3492,
      "Ġgovernmental": 3493,
      "Ġmaturities": 3494,
      "Ġjudgments": 3495,
      "Ġimmediately": 3496,
      "47": 3497,
      "Prior": 3498,
      "igital": 3499,
      "roll": 3500,
      "Ġenact": 3501,
      "Ġuncertainties": 3502,
      "ĠPhase": 3503,
      "Ġtechnical": 3504,
      "Ġalternative": 3505,
      "Ġtransportation": 3506,
      "31": 3507,
      "TO": 3508,
      "Ġsource": 3509,
      "looking": 3510,
      "Ġintend": 3511,
      "Ġcounter": 3512,
      "Ġsummarizes": 3513,
      "ĠFirst": 3514,
      "ĠCar": 3515,
      "Ġcourt": 3516,
      "ĠRule": 3517,
      "Ġprincipally": 3518,
      "Ġtrademark": 3519,
      "Ġdevices": 3520,
      "Ġstatutory": 3521,
      "ĠBlack": 3522,
      "rastructure": 3523,
      "ĠCORPOR": 3524,
      "TC": 3525,
      "ms": 3526,
      "orage": 3527,
      "Ġsite": 3528,
      "ison": 3529,
      "aining": 3530,
      "Ġperiodic": 3531,
      "Ġgoods": 3532,
      "Ġnegot": 3533,
      "Ġcombined": 3534,
      "LE": 3535,
      "itle": 3536,
      "ĠCost": 3537,
      "ĠPolic": 3538,
      "ĠNational": 3539,
      "Ġfree": 3540,
      "ĠInterest": 3541,
      "Ġprobable": 3542,
      "Ġcarryforwards": 3543,
      "99": 3544,
      "MM": 3545,
      "aster": 3546,
      "Also": 3547,
      "Certain": 3548,
      "Ġpack": 3549,
      "Ġaffiliates": 3550,
      "Ġmilest": 3551,
      "ĠProducts": 3552,
      "iture": 3553,
      "Ġreceipt": 3554,
      "secured": 3555,
      "ĠValue": 3556,
      "Ġcorporation": 3557,
      "ĠCurrent": 3558,
      "ĠInsurance": 3559,
      "incipal": 3560,
      "Ġcharacter": 3561,
      "Ġparticipants": 3562,
      "Ġcontained": 3563,
      "Ġsummary": 3564,
      "IBOR": 3565,
      "Ġmerch": 3566,
      "EO": 3567,
      "onse": 3568,
      "Ġacceler": 3569,
      "amp": 3570,
      "Ġfiling": 3571,
      "ĠProgram": 3572,
      "ĠRegulation": 3573,
      "Ġborrowing": 3574,
      "Ġcontributions": 3575,
      "Ġden": 3576,
      "Ġdefin": 3577,
      "Ġextended": 3578,
      "COUN": 3579,
      "Ġlargest": 3580,
      "anes": 3581,
      "ether": 3582,
      "Ġexpansion": 3583,
      "Ġpatient": 3584,
      "Ġmeeting": 3585,
      "ĠResults": 3586,
      "Ġindustrial": 3587,
      "PL": 3588,
      "annel": 3589,
      "Income": 3590,
      "Ġadvant": 3591,
      "Ġpresents": 3592,
      "ĠEuropean": 3593,
      "Pr": 3594,
      "isable": 3595,
      "Ġbest": 3596,
      "ude": 3597,
      "Ġrestaur": 3598,
      "Ġarising": 3599,
      "Changes": 3600,
      "Ġdegree": 3601,
      "Ġtaken": 3602,
      "Ġdiscontinued": 3603,
      "Ġdiscretion": 3604,
      "ĠChairman": 3605,
      "Ġcommercialization": 3606,
      "Ġallocation": 3607,
      "Ġstructure": 3608,
      "Ġexternal": 3609,
      "ually": 3610,
      "efin": 3611,
      "ĠGAAP": 3612,
      "Ġamendments": 3613,
      "ĠLimited": 3614,
      "house": 3615,
      "arn": 3616,
      "rop": 3617,
      "ITY": 3618,
      "Ġenhance": 3619,
      "66": 3620,
      "lu": 3621,
      "str": 3622,
      "Ġvend": 3623,
      "Ġaccur": 3624,
      "Ġmember": 3625,
      "Ġlawsu": 3626,
      "vested": 3627,
      "ĠAnalysis": 3628,
      "Cash": 3629,
      "He": 3630,
      "mon": 3631,
      "sh": 3632,
      "Ġclose": 3633,
      "losed": 3634,
      "Ġmaintaining": 3635,
      "Ġprojected": 3636,
      "Ġcollection": 3637,
      "ĠCOMP": 3638,
      "Ġwebsite": 3639,
      "Ġmot": 3640,
      "Ġ2021": 3641,
      "ĠNon": 3642,
      "Ġapplied": 3643,
      "ordinated": 3644,
      "Ġexercisable": 3645,
      "Ġwrite": 3646,
      "Ġdollars": 3647,
      "PER": 3648,
      "ĠX": 3649,
      "Ġconcentr": 3650,
      "Ġsust": 3651,
      "ĠIncorporated": 3652,
      "Ġtraded": 3653,
      "Ġinfrastructure": 3654,
      "pose": 3655,
      "Ġsquare": 3656,
      "Ġfound": 3657,
      "imates": 3658,
      "uled": 3659,
      "Ġassist": 3660,
      "uman": 3661,
      "Ġterminated": 3662,
      "akes": 3663,
      "Ġfile": 3664,
      "Ġ90": 3665,
      "Ġderivatives": 3666,
      "ĠACCOUN": 3667,
      "Ġexpir": 3668,
      "Ġelectric": 3669,
      "Ġpharmaceutical": 3670,
      "vis": 3671,
      "Ġes": 3672,
      "Inc": 3673,
      "Ġraw": 3674,
      "Ġtransition": 3675,
      "versight": 3676,
      "Ġdecision": 3677,
      "Ġstrong": 3678,
      "Ġelected": 3679,
      "Ġcaused": 3680,
      "ath": 3681,
      "Ġpe": 3682,
      "Ġcop": 3683,
      "ĠUnivers": 3684,
      "Ġpotentially": 3685,
      "actors": 3686,
      "Ġreput": 3687,
      "Ġamendment": 3688,
      "Ġraise": 3689,
      "Ġunderwrit": 3690,
      "appro": 3691,
      "pond": 3692,
      "yment": 3693,
      "ink": 3694,
      "Ġpass": 3695,
      "Ġproposed": 3696,
      "ĠDuring": 3697,
      "egment": 3698,
      "Ġoutcome": 3699,
      "Ġtotaling": 3700,
      "Ġsustain": 3701,
      "32": 3702,
      "Ġgr": 3703,
      "etters": 3704,
      "Risk": 3705,
      "laint": 3706,
      "Ġoften": 3707,
      "Ġsites": 3708,
      "Ġrely": 3709,
      "ĠCorporate": 3710,
      "ĠSee": 3711,
      "Ġrespects": 3712,
      "emplo": 3713,
      "down": 3714,
      "Ġrepurch": 3715,
      "Ġfurn": 3716,
      "Ġeven": 3717,
      "ĠCl": 3718,
      "gress": 3719,
      "Ġcred": 3720,
      "Ġinability": 3721,
      "etition": 3722,
      "ĠCol": 3723,
      "ayments": 3724,
      "ĠFD": 3725,
      "Ġunsecured": 3726,
      "Ġshow": 3727,
      "Ġface": 3728,
      "Ġresponse": 3729,
      "Ġdepends": 3730,
      "Ġdifference": 3731,
      "Ġauthority": 3732,
      "ĠConvertible": 3733,
      "ĠAdministr": 3734,
      "ĠTransact": 3735,
      "ospital": 3736,
      "Account": 3737,
      "SP": 3738,
      "cash": 3739,
      "ino": 3740,
      "Ġinterpret": 3741,
      "Ġdefend": 3742,
      "Ġpermit": 3743,
      "Ġbroker": 3744,
      "Ġending": 3745,
      "Ġweak": 3746,
      "umm": 3747,
      "ĠGu": 3748,
      "Ġrecords": 3749,
      "OLD": 3750,
      "Ġtype": 3751,
      "Ġteam": 3752,
      "Ġimportant": 3753,
      "ĠSouth": 3754,
      "De": 3755,
      "Ġsus": 3756,
      "Ġflo": 3757,
      "ĠDistrict": 3758,
      "ĠLIBOR": 3759,
      "Ġdecisions": 3760,
      "Ġentire": 3761,
      "incorporated": 3762,
      "MS": 3763,
      "cil": 3764,
      "Ġpos": 3765,
      "ĠCert": 3766,
      "ĠApp": 3767,
      "ĠFiscal": 3768,
      "ĠDelaw": 3769,
      "ĠIndust": 3770,
      "Ġdiscounted": 3771,
      "Ġexpiration": 3772,
      "ĠDelaware": 3773,
      "onus": 3774,
      "Ġforfe": 3775,
      "ĠRet": 3776,
      "Ġcapabilities": 3777,
      "Ġmaintained": 3778,
      "Ġmethods": 3779,
      "Ġstudy": 3780,
      "Ġlisted": 3781,
      "ĠProperty": 3782,
      "Financial": 3783,
      "Ġunf": 3784,
      "Ġreclass": 3785,
      "Ġdisru": 3786,
      "ĠInvestment": 3787,
      "Ġworldwide": 3788,
      "ĠInstruments": 3789,
      "Ġinitiatives": 3790,
      "Ġbook": 3791,
      "ĠCORPORATION": 3792,
      "lp": 3793,
      "respond": 3794,
      "Ġ1994": 3795,
      "partment": 3796,
      "Ġregistration": 3797,
      "42": 3798,
      "AG": 3799,
      "Ġmerger": 3800,
      "iled": 3801,
      "Ġletters": 3802,
      "formance": 3803,
      "Ġleased": 3804,
      "Ġindirect": 3805,
      "Ġallowances": 3806,
      "56": 3807,
      "RC": 3808,
      "son": 3809,
      "ĠDevelopment": 3810,
      "ĠLong": 3811,
      "ussion": 3812,
      "Ġparticularly": 3813,
      "Stock": 3814,
      "Ġpoints": 3815,
      "Ġgeographic": 3816,
      "ones": 3817,
      "Ġconjunction": 3818,
      "lows": 3819,
      "ĠImp": 3820,
      "Revenue": 3821,
      "ET": 3822,
      "IP": 3823,
      "RA": 3824,
      "Ġserve": 3825,
      "Ġsavings": 3826,
      "Ġstren": 3827,
      "Ġnotice": 3828,
      "ĠLLP": 3829,
      "Ġbuilding": 3830,
      "Ġdoubt": 3831,
      "78": 3832,
      "rect": 3833,
      "Ġtimes": 3834,
      "Ġevaluated": 3835,
      "90": 3836,
      "arly": 3837,
      "ished": 3838,
      "abel": 3839,
      "ĠBr": 3840,
      "Ġleverage": 3841,
      "ĠStockholders": 3842,
      "ĠDiscussion": 3843,
      "Ġcenters": 3844,
      "ĠSubsidi": 3845,
      "td": 3846,
      "Ġstorage": 3847,
      "Ġterminate": 3848,
      "Ġoffices": 3849,
      "Ġmoney": 3850,
      "Ġbuy": 3851,
      "error": 3852,
      "Ġsatisfy": 3853,
      "gn": 3854,
      "ie": 3855,
      "eration": 3856,
      "iving": 3857,
      "ĠAmended": 3858,
      "Ġcorrespond": 3859,
      "ĠâĹı": 3860,
      "eut": 3861,
      "urring": 3862,
      "Ġnumer": 3863,
      "olit": 3864,
      "Ġpurpose": 3865,
      "Ġlicensed": 3866,
      "Ġdesignated": 3867,
      "ĠInternet": 3868,
      "ĠCondition": 3869,
      "Ġcalculation": 3870,
      "ĠIII": 3871,
      "Ġproduce": 3872,
      "Ġconsulting": 3873,
      "Each": 3874,
      "ivered": 3875,
      "ĠMex": 3876,
      "Ġderived": 3877,
      "uthorized": 3878,
      "Ġcredits": 3879,
      "Ġconcluded": 3880,
      "ĠWest": 3881,
      "ĠPlans": 3882,
      "Ġidentify": 3883,
      "Ġvested": 3884,
      "ĠAcquisition": 3885,
      "ĠUniversity": 3886,
      "nov": 3887,
      "yond": 3888,
      "ift": 3889,
      "Ġselected": 3890,
      "Ġultimate": 3891,
      "Ġce": 3892,
      "Ġsection": 3893,
      "unic": 3894,
      "Ġbeyond": 3895,
      "Ġsubs": 3896,
      "Ġabs": 3897,
      "Ġhelp": 3898,
      "ĠSystems": 3899,
      "ĠMedicare": 3900,
      "Ġinfringe": 3901,
      "efinite": 3902,
      "BIT": 3903,
      "eal": 3904,
      "gether": 3905,
      "Ġcance": 3906,
      "Ġsens": 3907,
      "Ġtogether": 3908,
      "ĠService": 3909,
      "En": 3910,
      "Pursuant": 3911,
      "Tr": 3912,
      "Ġmatter": 3913,
      "Ġstrategies": 3914,
      "reen": 3915,
      "ancer": 3916,
      "Ġcore": 3917,
      "Ġacross": 3918,
      "Ġexpects": 3919,
      "ĠWarrant": 3920,
      "Ġbecame": 3921,
      "ĠContract": 3922,
      "Ġutilized": 3923,
      "Ġimplementation": 3924,
      "Ġeffici": 3925,
      "Ġredemption": 3926,
      "Ġcommodity": 3927,
      "oot": 3928,
      "Ġgo": 3929,
      "ĠDr": 3930,
      "ductions": 3931,
      "ĠOver": 3932,
      "Ġvalued": 3933,
      "Ġparts": 3934,
      "ĠIND": 3935,
      "Ġallows": 3936,
      "Ġvolumes": 3937,
      "ĠSales": 3938,
      "ĠDIS": 3939,
      "Ġcontent": 3940,
      "aced": 3941,
      "Ġanti": 3942,
      "Ġadvance": 3943,
      "Ġyou": 3944,
      "Ġdrugs": 3945,
      "Ġindividuals": 3946,
      "ĠQuarter": 3947,
      "From": 3948,
      "44": 3949,
      "ITI": 3950,
      "Rec": 3951,
      "average": 3952,
      "zard": 3953,
      "ĠCertain": 3954,
      "umb": 3955,
      "ĠIV": 3956,
      "Ġminim": 3957,
      "Ġcontains": 3958,
      "Ġpromot": 3959,
      "Ġannounced": 3960,
      "dr": 3961,
      "ĠCorp": 3962,
      "Ġexplor": 3963,
      "Ġsalary": 3964,
      "qualified": 3965,
      "inance": 3966,
      "Ġpip": 3967,
      "Ġshipp": 3968,
      "Ġshareholder": 3969,
      "Ġfunded": 3970,
      "Ġutilize": 3971,
      "hemical": 3972,
      ")(": 3973,
      "organ": 3974,
      "Ġwide": 3975,
      "ĠDate": 3976,
      "ĠElect": 3977,
      "ĠIP": 3978,
      "Ġfairly": 3979,
      "Ġenc": 3980,
      "Ġcontinues": 3981,
      "Ġfeet": 3982,
      "Ġassessing": 3983,
      "Ġlegislation": 3984,
      "Ġnumerous": 3985,
      "CC": 3986,
      "SFAS": 3987,
      "yl": 3988,
      "rem": 3989,
      "Ġhow": 3990,
      "apid": 3991,
      "ĠLtd": 3992,
      "Ġacceptable": 3993,
      "Ġcommitment": 3994,
      "ĠFDIC": 3995,
      "Act": 3996,
      "oh": 3997,
      "Ġmix": 3998,
      "Ġbear": 3999,
      "ifies": 4000,
      "Ġrecon": 4001,
      "ĠTopic": 4002,
      "98": 4003,
      "ored": 4004,
      "etter": 4005,
      "Ġfraud": 4006,
      "Ġshown": 4007,
      "Ġmodified": 4008,
      "Ġapprovals": 4009,
      "ATIONS": 4010,
      "Ġorganizations": 4011,
      "urs": 4012,
      "ĠPower": 4013,
      "Ġalong": 4014,
      "eline": 4015,
      "rument": 4016,
      "Ġlimits": 4017,
      "Ġobtaining": 4018,
      "CK": 4019,
      "EX": 4020,
      "mission": 4021,
      "Ġexpert": 4022,
      "Ġequivalent": 4023,
      "Ġordinary": 4024,
      "SUs": 4025,
      "IL": 4026,
      "ern": 4027,
      "Ġlending": 4028,
      "otel": 4029,
      "elf": 4030,
      "ĠResources": 4031,
      "========": 4032,
      "ĠCanadian": 4033,
      "General": 4034,
      "Ġreputation": 4035,
      "UL": 4036,
      "tic": 4037,
      "Ġchannel": 4038,
      "Ġextend": 4039,
      "MA": 4040,
      "TOR": 4041,
      "aft": 4042,
      "ĠCON": 4043,
      "Ġhospital": 4044,
      "Ġinvesting": 4045,
      "Ġdisclosed": 4046,
      "retirement": 4047,
      "Ġacceptance": 4048,
      "Ġfunctions": 4049,
      "65": 4050,
      "Dep": 4051,
      "ream": 4052,
      "Ġname": 4053,
      "Ġstaff": 4054,
      "Ġstockholder": 4055,
      "Ġlicensing": 4056,
      "Ġconverted": 4057,
      "Ġengaged": 4058,
      "Ġenacted": 4059,
      "With": 4060,
      "control": 4061,
      "gen": 4062,
      "lease": 4063,
      "Ġdeb": 4064,
      "Ġmillions": 4065,
      "ĠRo": 4066,
      "Ġagency": 4067,
      "Ġperforming": 4068,
      "Ġclient": 4069,
      "Ġscheduled": 4070,
      "Some": 4071,
      "Ġopt": 4072,
      "Ġsize": 4073,
      "perating": 4074,
      "ĠEX": 4075,
      "ĠTHE": 4076,
      "iagn": 4077,
      "Ġconsiders": 4078,
      "Ġdamage": 4079,
      "Ġexcluding": 4080,
      "Ġindustries": 4081,
      "Ġconcern": 4082,
      "mployee": 4083,
      "Ġdigital": 4084,
      "osed": 4085,
      "---": 4086,
      "venues": 4087,
      "Ġinvested": 4088,
      "itute": 4089,
      "Ġreviewed": 4090,
      "Ġrepresented": 4091,
      "Ġdeclared": 4092,
      "Ġleading": 4093,
      "Ġdevice": 4094,
      "ĠOrgan": 4095,
      "Ġweakness": 4096,
      "NOTE": 4097,
      "use": 4098,
      "ĠOfficers": 4099,
      "Ġschedule": 4100,
      "Ġmanaged": 4101,
      "Ġfunctional": 4102,
      "ĠSpons": 4103,
      "Ġengineering": 4104,
      "Ġbonus": 4105,
      "ĠGlobal": 4106,
      "Ġindefinite": 4107,
      "Ġmean": 4108,
      "Ġscope": 4109,
      "Ġguarantee": 4110,
      "Ġemerg": 4111,
      "Ġpremiums": 4112,
      "Ġobjectives": 4113,
      "ĠIssu": 4114,
      "Ġexclusive": 4115,
      "09": 4116,
      "When": 4117,
      "Ġwa": 4118,
      "ĠEBIT": 4119,
      "than": 4120,
      "ĠITEM": 4121,
      "onsolidated": 4122,
      "Ġexercised": 4123,
      "Ġinflu": 4124,
      "Ġwarranty": 4125,
      "Ġhedging": 4126,
      "ĠRestated": 4127,
      "Ġfood": 4128,
      "ĠDepartment": 4129,
      "Ġimproved": 4130,
      "iable": 4131,
      "eting": 4132,
      "Ġbegan": 4133,
      "Ġcomplaint": 4134,
      "--------------------------------": 4135,
      "Ġconsolidation": 4136,
      "ĠPolicies": 4137,
      "TH": 4138,
      "sale": 4139,
      "ida": 4140,
      "Ġuna": 4141,
      "Ġdepending": 4142,
      "Ġsupplies": 4143,
      "Ġconfidential": 4144,
      "ĠEnter": 4145,
      "Ġexceeds": 4146,
      "Ġremediation": 4147,
      "Ġdisease": 4148,
      "77": 4149,
      "ott": 4150,
      "ains": 4151,
      "Ġexpectations": 4152,
      "oph": 4153,
      "Ġjo": 4154,
      "ricted": 4155,
      "Ġmining": 4156,
      "ĠEnded": 4157,
      "ĠRegistration": 4158,
      "Ġenterpr": 4159,
      "Ġconcerning": 4160,
      "95": 4161,
      "VID": 4162,
      "Ġrapid": 4163,
      "Ġagent": 4164,
      "Ġ1993": 4165,
      "Ġinstrument": 4166,
      "Ġdisposal": 4167,
      "Ġprofits": 4168,
      "Ġseason": 4169,
      "Ġcandidate": 4170,
      "Ġfind": 4171,
      "Ġregistrant": 4172,
      "Ġcategory": 4173,
      "Ġpositive": 4174,
      "AB": 4175,
      "GAAP": 4176,
      "Since": 4177,
      "Ġinsured": 4178,
      "Ġholder": 4179,
      "Ġrepair": 4180,
      "ificate": 4181,
      "Ġregional": 4182,
      "Ġdeter": 4183,
      "Ġrequirement": 4184,
      "aluation": 4185,
      "ollars": 4186,
      "Ġdriven": 4187,
      "Ġcreate": 4188,
      "TOCK": 4189,
      "month": 4190,
      "PART": 4191,
      "Sales": 4192,
      "more": 4193,
      "pec": 4194,
      "ism": 4195,
      "Ġspending": 4196,
      "craft": 4197,
      "Ġreviews": 4198,
      "Ġcomputed": 4199,
      "ĠSheets": 4200,
      "Ġadvantage": 4201,
      "Ġsusp": 4202,
      "IE": 4203,
      "urrence": 4204,
      "Ġproble": 4205,
      "ĠMexico": 4206,
      "with": 4207,
      "asure": 4208,
      "ivil": 4209,
      "ĠLoss": 4210,
      "Ġretro": 4211,
      "Ġdelivered": 4212,
      "Ġrepresenting": 4213,
      "Ġthousand": 4214,
      "Ġtraditional": 4215,
      "Ġvehicles": 4216,
      "val": 4217,
      "onstr": 4218,
      "ĠCity": 4219,
      "choles": 4220,
      "Ġstep": 4221,
      "Ġcurrencies": 4222,
      "Ġtransferred": 4223,
      "ublis": 4224,
      "United": 4225,
      "Ġguidelines": 4226,
      "\"),": 4227,
      "250": 4228,
      "comm": 4229,
      "Ġsect": 4230,
      "ĠFair": 4231,
      "ibles": 4232,
      "justed": 4233,
      "Ġexists": 4234,
      "Ġadvances": 4235,
      "Ġdemonstr": 4236,
      "Ġmulti": 4237,
      "EMENT": 4238,
      "Ġbreach": 4239,
      "Ġreliability": 4240,
      "Ġnamed": 4241,
      "Ġunpaid": 4242,
      "GN": 4243,
      "market": 4244,
      "Ġsk": 4245,
      "Ġfield": 4246,
      "Ġreductions": 4247,
      "ĠFlor": 4248,
      "Ġrepayment": 4249,
      "oreign": 4250,
      "Ġenable": 4251,
      "tempt": 4252,
      "Ġreducing": 4253,
      "Ġindicate": 4254,
      "Ġconformity": 4255,
      "day": 4256,
      "eel": 4257,
      "ious": 4258,
      "ience": 4259,
      "Ġz": 4260,
      "inating": 4261,
      "Ġhaving": 4262,
      "Ġattempt": 4263,
      "Ġappoint": 4264,
      "ached": 4265,
      "Ġdrilling": 4266,
      "RS": 4267,
      "ck": 4268,
      "Ġanother": 4269,
      "Ġrefer": 4270,
      "unt": 4271,
      "ĠAust": 4272,
      "Ġwee": 4273,
      "Invest": 4274,
      "ĠRights": 4275,
      "ĠDef": 4276,
      "interest": 4277,
      "Ġconsisting": 4278,
      "Ġfeatures": 4279,
      "ĠFlorida": 4280,
      "aun": 4281,
      "ilit": 4282,
      "Ġhard": 4283,
      "log": 4284,
      "Ġdefer": 4285,
      "hern": 4286,
      "ĠRate": 4287,
      "Ġship": 4288,
      "ĠJap": 4289,
      "________________": 4290,
      "Ġenforcement": 4291,
      "ĠSupplement": 4292,
      "05": 4293,
      "after": 4294,
      "Ġturn": 4295,
      "Ġdist": 4296,
      "ĠPat": 4297,
      "ĠMin": 4298,
      "Ġowns": 4299,
      "TIVE": 4300,
      "Ġlocation": 4301,
      "Ġbetter": 4302,
      "Ġborrower": 4303,
      "Ġannum": 4304,
      "Ġbonds": 4305,
      "Ġmerchand": 4306,
      "ĠACCOUNTING": 4307,
      "ĠSubsidiaries": 4308,
      "Ġtre": 4309,
      "icro": 4310,
      "Ġhuman": 4311,
      "Ġparticipation": 4312,
      "ĠAssoc": 4313,
      "Ġmanaging": 4314,
      "Ġorganization": 4315,
      "ierarch": 4316,
      "Ġlarger": 4317,
      "Ġdocument": 4318,
      "IF": 4319,
      "ĠPRO": 4320,
      "ĠTo": 4321,
      "Ġimpose": 4322,
      "Ġbeneficial": 4323,
      "issory": 4324,
      "Ġclassification": 4325,
      "clinical": 4326,
      "Ġrecoverable": 4327,
      "Ġimplemented": 4328,
      "Ġcrude": 4329,
      "ruptcy": 4330,
      "unications": 4331,
      "**": 4332,
      "Reg": 4333,
      "ĠCount": 4334,
      "Ġlabel": 4335,
      "eli": 4336,
      "Ġplanned": 4337,
      "Ġtests": 4338,
      "earing": 4339,
      "ierarchy": 4340,
      "comp": 4341,
      "Ġinnov": 4342,
      "Ġself": 4343,
      "ounts": 4344,
      "Ġoperated": 4345,
      "Ġoperates": 4346,
      "Ġrelate": 4347,
      "Ġrequiring": 4348,
      "Ġdecreases": 4349,
      "Ġcommercialize": 4350,
      "Ġpublicly": 4351,
      "Ġmisstate": 4352,
      "Ġfranchise": 4353,
      "Accounting": 4354,
      "ummary": 4355,
      "76": 4356,
      "ĠAll": 4357,
      "ĠPursuant": 4358,
      "ĠMar": 4359,
      "ĠOversight": 4360,
      "ĠBas": 4361,
      "Ġsubordinated": 4362,
      "sour": 4363,
      "Ġqualify": 4364,
      "Ġsummarized": 4365,
      "ĠTechnology": 4366,
      "ĠEBITDA": 4367,
      "88": 4368,
      "Fair": 4369,
      "Ġmobile": 4370,
      "Ġagents": 4371,
      "ASU": 4372,
      "Ġextensive": 4373,
      "Ġnear": 4374,
      "Ġanaly": 4375,
      "Ġrecently": 4376,
      "wh": 4377,
      "utures": 4378,
      "Ġexhibit": 4379,
      "Ġhierarchy": 4380,
      "sequ": 4381,
      "Ġrad": 4382,
      "Ġobservable": 4383,
      "Ġcontribution": 4384,
      "ĠREIT": 4385,
      "Scholes": 4386,
      "onduct": 4387,
      "etro": 4388,
      "Ġnow": 4389,
      "Ġvers": 4390,
      "Ġengage": 4391,
      "Ġthereto": 4392,
      "Ġmineral": 4393,
      "Ġgeneration": 4394,
      "Ġintegration": 4395,
      "Ġcountry": 4396,
      "EP": 4397,
      "Lo": 4398,
      "Ġpublis": 4399,
      "Ġprogress": 4400,
      "Ġonline": 4401,
      "Ġranging": 4402,
      "Ġexpensed": 4403,
      "ĠNone": 4404,
      "ĠPartners": 4405,
      "Ġmonitor": 4406,
      "Ġultimately": 4407,
      "Ġelectronic": 4408,
      "arnings": 4409,
      "Ġreconcil": 4410,
      "iam": 4411,
      "where": 4412,
      "Ġever": 4413,
      "Ġconsequ": 4414,
      "ifically": 4415,
      "Ġadvanced": 4416,
      "ĠReserve": 4417,
      "Ġhedges": 4418,
      "place": 4419,
      "ĠAsia": 4420,
      "Ġprospects": 4421,
      "olitical": 4422,
      "Cost": 4423,
      "TM": 4424,
      "Ġpress": 4425,
      "iliated": 4426,
      "ĠInclud": 4427,
      "URES": 4428,
      "Ġcomputer": 4429,
      "Ġconsultants": 4430,
      "Ġroyalties": 4431,
      "Ġmonitoring": 4432,
      "Ġintrodu": 4433,
      "Ġunderwriting": 4434,
      "itable": 4435,
      "Ġfew": 4436,
      "Ġstart": 4437,
      "Ġparticipate": 4438,
      "Ġsettled": 4439,
      "Ġcontributed": 4440,
      "Ġtrademarks": 4441,
      "Ġexploration": 4442,
      "HL": 4443,
      "Total": 4444,
      "Ġlack": 4445,
      "ills": 4446,
      "ĠMid": 4447,
      "ĠTotal": 4448,
      "ousing": 4449,
      "erences": 4450,
      "Ġplanning": 4451,
      "Ġmaintains": 4452,
      "egrated": 4453,
      "EL": 4454,
      "Ġcat": 4455,
      "Ġfoot": 4456,
      "Ġsuff": 4457,
      "ivities": 4458,
      "ĠNAS": 4459,
      "Ġhazard": 4460,
      "ĠLic": 4461,
      "ĠGe": 4462,
      "Ġdevelopments": 4463,
      "Ġbasic": 4464,
      "Ġremov": 4465,
      "Ġhistorically": 4466,
      "Ġsubsequently": 4467,
      "Ġredeem": 4468,
      "Ġ----": 4469,
      "Ġinception": 4470,
      "Ġusers": 4471,
      "Ġquarters": 4472,
      "Ġdetect": 4473,
      "airment": 4474,
      "Ġrestated": 4475,
      "Ġguarantees": 4476,
      "Ġcarried": 4477,
      "Ġcharacteristics": 4478,
      "Ġcorresponding": 4479,
      "85": 4480,
      "Li": 4481,
      "Ġmove": 4482,
      "ĠMc": 4483,
      "Ġinvolving": 4484,
      "ANT": 4485,
      "ĠRegul": 4486,
      "ledge": 4487,
      "Ġdifficulties": 4488,
      "Ġcollaboration": 4489,
      "ĠShareholders": 4490,
      "icians": 4491,
      "Ġaircraft": 4492,
      "ĠTechnologies": 4493,
      "Ġcancer": 4494,
      "Ġtool": 4495,
      "Ġdiagn": 4496,
      "Ġnor": 4497,
      "ĠAb": 4498,
      "semb": 4499,
      "001": 4500,
      "ĠEQU": 4501,
      "ĠTreasury": 4502,
      "DAQ": 4503,
      "ĠKing": 4504,
      "ĠReal": 4505,
      "Ġyet": 4506,
      "Therefore": 4507,
      "Ġclosed": 4508,
      "ĠMeeting": 4509,
      "Deferred": 4510,
      "Ġdoubtful": 4511,
      "\").": 4512,
      "Goodwill": 4513,
      "Market": 4514,
      "rate": 4515,
      "ominated": 4516,
      "Ġmitig": 4517,
      "ĠCont": 4518,
      "Ġ35": 4519,
      "urer": 4520,
      "Ġchanged": 4521,
      "Ġrecognizes": 4522,
      "Ġgoverning": 4523,
      "Ġassessed": 4524,
      "Ġpermits": 4525,
      "ĠMatters": 4526,
      "ohn": 4527,
      "Ġdeterior": 4528,
      "41": 4529,
      "mark": 4530,
      "ximately": 4531,
      "Ġbar": 4532,
      "ĠSan": 4533,
      "ĠDeferred": 4534,
      "Ġfam": 4535,
      "Ġchanging": 4536,
      "Ġspons": 4537,
      "Ġexposed": 4538,
      "ĠTransactions": 4539,
      "ĠIndustr": 4540,
      "79": 4541,
      "pon": 4542,
      "ww": 4543,
      "Ġ*": 4544,
      "lear": 4545,
      "ĠDiv": 4546,
      "Ġwhat": 4547,
      "Ġrecomm": 4548,
      "Ġprovider": 4549,
      "Ġaffecting": 4550,
      "ĠResearch": 4551,
      "ĠFramework": 4552,
      "Ġcyc": 4553,
      "ĠOffice": 4554,
      "Ġlenders": 4555,
      "Ġvendors": 4556,
      "ĠQuarterly": 4557,
      "Ġed": 4558,
      "ature": 4559,
      "Ġcivil": 4560,
      "Ġduly": 4561,
      "Ġproxy": 4562,
      "Ġintr": 4563,
      "ading": 4564,
      "Ġsecret": 4565,
      "Ġconsumers": 4566,
      "Ġmanufacturer": 4567,
      "Ġwhole": 4568,
      "Ġintegrated": 4569,
      "Ġseeking": 4570,
      "01": 4571,
      "Non": 4572,
      "Ġseries": 4573,
      "Ġlaun": 4574,
      "ĠFactors": 4575,
      "Ġrelates": 4576,
      "Ġowners": 4577,
      "ORM": 4578,
      "Ox": 4579,
      "dom": 4580,
      "ole": 4581,
      "asons": 4582,
      "Ġlater": 4583,
      "ĠSecurity": 4584,
      "ĠAcc": 4585,
      "Ġtraining": 4586,
      "Ġoffered": 4587,
      "Ġsupplement": 4588,
      "ĠActivities": 4589,
      "Ġsecure": 4590,
      "quidity": 4591,
      "Ġrevised": 4592,
      "Ġintegral": 4593,
      "Ġimprovement": 4594,
      "Ġseparately": 4595,
      "ĠOwnership": 4596,
      "Many": 4597,
      "current": 4598,
      "att": 4599,
      "ĠSTOCK": 4600,
      "Ġassert": 4601,
      "ounted": 4602,
      "ĠDebt": 4603,
      "ĠOb": 4604,
      "Ġinvestor": 4605,
      "ĠUnder": 4606,
      "Ġoccup": 4607,
      "avorable": 4608,
      "Ġretained": 4609,
      "Ġcorrect": 4610,
      "Ġestablishing": 4611,
      "Ġtechniqu": 4612,
      "Ġtherapy": 4613,
      "iffs": 4614,
      "Furthermore": 4615,
      "Ġachieved": 4616,
      "CS": 4617,
      "Operating": 4618,
      "au": 4619,
      "company": 4620,
      "itments": 4621,
      "ounce": 4622,
      "Ġreportable": 4623,
      "overed": 4624,
      "ĠLoans": 4625,
      "Ġseverance": 4626,
      "Ġcenter": 4627,
      "Ġspecialty": 4628,
      "Ġheadqu": 4629,
      "Due": 4630,
      "ves": 4631,
      "reet": 4632,
      "encing": 4633,
      "olar": 4634,
      "ifiable": 4635,
      "Ġserves": 4636,
      "Ġwells": 4637,
      "Ġseven": 4638,
      "Ġneeded": 4639,
      "ĠIndependent": 4640,
      "ĠCOVID": 4641,
      "Ġmodels": 4642,
      "Ġcategories": 4643,
      "Ġcommunications": 4644,
      "Ġvehicle": 4645,
      "arbanes": 4646,
      "fr": 4647,
      "»¿": 4648,
      "ï»¿": 4649,
      "ĠCEO": 4650,
      "Ġlight": 4651,
      "Ġservicing": 4652,
      "Ġmarketable": 4653,
      "Ġrespond": 4654,
      "ĠUnits": 4655,
      "ĠWh": 4656,
      "Ġprepared": 4657,
      "ĠEquipment": 4658,
      "Ġcommunity": 4659,
      "Ġfocused": 4660,
      "Ġrelatively": 4661,
      "LATED": 4662,
      "Ġpaper": 4663,
      "ĠCosts": 4664,
      "Incorporated": 4665,
      "employe": 4666,
      "Actual": 4667,
      "lim": 4668,
      "yd": 4669,
      "Ġefficient": 4670,
      "erson": 4671,
      "lier": 4672,
      "Ġactu": 4673,
      "ognition": 4674,
      "Ġprojections": 4675,
      "Ġelection": 4676,
      "ĠAdvis": 4677,
      "INGS": 4678,
      "Ġpractice": 4679,
      "Ġsatisfact": 4680,
      "ĠProperties": 4681,
      "300": 4682,
      "NA": 4683,
      "Ħ¢": 4684,
      "ero": 4685,
      "Ġhotel": 4686,
      "ancy": 4687,
      "endar": 4688,
      "vironmental": 4689,
      "Ġdiscounts": 4690,
      "Ġrather": 4691,
      "Ġmedia": 4692,
      "Executive": 4693,
      "Ġrenewal": 4694,
      "Ġknowledge": 4695,
      "Ġmeaning": 4696,
      "Company": 4697,
      "apt": 4698,
      "ration": 4699,
      "Ġpolitical": 4700,
      "Ġsy": 4701,
      "Ġfines": 4702,
      "Ġlose": 4703,
      "ĠProt": 4704,
      "angibles": 4705,
      "ĠEng": 4706,
      "Ġexamination": 4707,
      "Ġinvolves": 4708,
      "Ġsubmitted": 4709,
      "Ġmilestone": 4710,
      "Ġinfringement": 4711,
      "âĦ¢": 4712,
      "ength": 4713,
      "Ġmid": 4714,
      "ĠSarbanes": 4715,
      "Ġstand": 4716,
      "sewhere": 4717,
      "ĠPenn": 4718,
      "izable": 4719,
      "ĠBy": 4720,
      "Ġperiodically": 4721,
      "Ġtranslation": 4722,
      "Ġupdate": 4723,
      "overy": 4724,
      "Ġdetermines": 4725,
      "Ġinventories": 4726,
      "ĠMedical": 4727,
      "Ġcollaborators": 4728,
      "emiconduct": 4729,
      "Ġswaps": 4730,
      "%)": 4731,
      "Ġtitle": 4732,
      "Ġdur": 4733,
      "ĠStr": 4734,
      "irm": 4735,
      "ĠFlows": 4736,
      "ĠBro": 4737,
      "Ġcommissions": 4738,
      "Ġwaste": 4739,
      "Ġpref": 4740,
      "Ġtechnological": 4741,
      "Ġutility": 4742,
      "Ġcalendar": 4743,
      "Ġratios": 4744,
      "Ġguaranteed": 4745,
      "Ġelsewhere": 4746,
      "Ġplacement": 4747,
      "Ġwholes": 4748,
      "Ġtravel": 4749,
      "Ġexpanded": 4750,
      "Ġreplacement": 4751,
      "ĠDISC": 4752,
      "Oxley": 4753,
      ",\"": 4754,
      "Ġware": 4755,
      "Ġelements": 4756,
      "Ġassure": 4757,
      "ĠEst": 4758,
      "aily": 4759,
      "Ġindex": 4760,
      "ĠUnit": 4761,
      "Ġborrowers": 4762,
      "ĠPrice": 4763,
      "Ġgroups": 4764,
      "Ġdefinitive": 4765,
      "draw": 4766,
      "Term": 4767,
      "ai": 4768,
      "Ġreasons": 4769,
      "ille": 4770,
      "ĠDes": 4771,
      "Ġregion": 4772,
      "Ass": 4773,
      "Ġrealize": 4774,
      "Ġoccurs": 4775,
      "Ġlargely": 4776,
      "onounce": 4777,
      "Ġfinanc": 4778,
      "Ġstage": 4779,
      "Ġnoted": 4780,
      "Ġspread": 4781,
      "Ġdepart": 4782,
      "ANCE": 4783,
      "Ġarise": 4784,
      "Ġeconomy": 4785,
      "ĠPharmaceutical": 4786,
      "Ġsupplier": 4787,
      "Ġobjective": 4788,
      "Ġreclassified": 4789,
      "ĠCounty": 4790,
      "Ġconsequences": 4791,
      "43": 4792,
      "58": 4793,
      "68": 4794,
      "MC": 4795,
      "oper": 4796,
      "Ġslow": 4797,
      "ĠSignificant": 4798,
      "Ġrepay": 4799,
      "ames": 4800,
      "Ġowner": 4801,
      "ideo": 4802,
      "spec": 4803,
      "Ġratings": 4804,
      "ĠNASDAQ": 4805,
      "Imp": 4806,
      "hood": 4807,
      "Ġtables": 4808,
      "ĠBe": 4809,
      "ĠBo": 4810,
      "Ġrecurring": 4811,
      "Ġconsent": 4812,
      "aches": 4813,
      "ĠGr": 4814,
      "Ġforesee": 4815,
      "Ġoccurrence": 4816,
      "cluding": 4817,
      "Principal": 4818,
      "Ġesc": 4819,
      "Ġcancell": 4820,
      "Ġhardware": 4821,
      "More": 4822,
      "OB": 4823,
      "Ġpop": 4824,
      "Ġmach": 4825,
      "iminal": 4826,
      "ĠSegment": 4827,
      "âĢ¬": 4828,
      "Ġwhose": 4829,
      "ĠEmplo": 4830,
      "ĠBi": 4831,
      "thics": 4832,
      "âĢĿ,": 4833,
      "Ġoffers": 4834,
      "Ġinflation": 4835,
      "raph": 4836,
      "Ġexcluded": 4837,
      "Ġcopy": 4838,
      "Ġunauthorized": 4839,
      "ĠJapan": 4840,
      "Ġom": 4841,
      "anent": 4842,
      "urg": 4843,
      "Ġwire": 4844,
      "Ġweather": 4845,
      "Ġresolution": 4846,
      "ĠRev": 4847,
      "ĠNY": 4848,
      "ists": 4849,
      "ously": 4850,
      "Ġdistributed": 4851,
      "Ġbankruptcy": 4852,
      "raz": 4853,
      "Ġreconciliation": 4854,
      "ington": 4855,
      "Ġwithdraw": 4856,
      "Ġplaint": 4857,
      "Ġtransmission": 4858,
      "Ġdisput": 4859,
      "Ġtargets": 4860,
      "secut": 4861,
      "Ġtherapeut": 4862,
      "ĠAustral": 4863,
      ".)": 4864,
      "67": 4865,
      "SA": 4866,
      "van": 4867,
      "Ġpool": 4868,
      "Ġletter": 4869,
      "Ġforce": 4870,
      "ĠSolutions": 4871,
      "Ġrule": 4872,
      "ĠOPER": 4873,
      "Ġchief": 4874,
      "ĠQual": 4875,
      "ĠDisclosure": 4876,
      "ĠRecognition": 4877,
      "Ġreinsurance": 4878,
      "Ġdocuments": 4879,
      "ĠGovernance": 4880,
      "Ġaccurately": 4881,
      "Ġexpertise": 4882,
      "400": 4883,
      "Ġintent": 4884,
      "amily": 4885,
      "Ġcostly": 4886,
      "ĠJohn": 4887,
      "urrency": 4888,
      "ĠGerm": 4889,
      "ĠAsset": 4890,
      "Ġcriminal": 4891,
      "Ġmerchandise": 4892,
      "08": 4893,
      "97": 4894,
      "az": 4895,
      "continued": 4896,
      "itu": 4897,
      "Ġexch": 4898,
      "Ġhomes": 4899,
      "ĠAB": 4900,
      "ĠDis": 4901,
      "ivate": 4902,
      "Ġvote": 4903,
      "ada": 4904,
      "Ġmeans": 4905,
      "Ġearlier": 4906,
      "Ġemployed": 4907,
      "ĠCOMM": 4908,
      "Ġattention": 4909,
      "Ġnetworks": 4910,
      "Proper": 4911,
      "ĠCenter": 4912,
      "Ġunfavorable": 4913,
      "Ġefficiency": 4914,
      "Ġenterprise": 4915,
      "800": 4916,
      "EF": 4917,
      "Ġflex": 4918,
      "ĠDistribut": 4919,
      "echnology": 4920,
      "Ġdefici": 4921,
      "Ġhistory": 4922,
      "Ġholds": 4923,
      "accru": 4924,
      "Ġaccelerated": 4925,
      "âĢ¬âĢ¬": 4926,
      "fill": 4927,
      "sc": 4928,
      "Ġlength": 4929,
      "chan": 4930,
      "ĠMerger": 4931,
      "Ġvalid": 4932,
      "Ġplants": 4933,
      "ĠVir": 4934,
      "Ġthereun": 4935,
      "Ġmanufactured": 4936,
      "Ġobligated": 4937,
      "ĠMarketing": 4938,
      "ĠLease": 4939,
      "Ġexpressed": 4940,
      "Ġaffiliate": 4941,
      "Ġeliminated": 4942,
      "Ġcaption": 4943,
      "Ġproblems": 4944,
      "HOLD": 4945,
      "OS": 4946,
      "bo": 4947,
      "ĠAir": 4948,
      "ody": 4949,
      "Ġalthough": 4950,
      "adequ": 4951,
      "Ġforma": 4952,
      "Ġparticipant": 4953,
      "Ġutilization": 4954,
      "ĠREG": 4955,
      "Ġview": 4956,
      "Ġundisc": 4957,
      "Ġchallenges": 4958,
      "Ġnegoti": 4959,
      "controlling": 4960,
      "Ġsuffer": 4961,
      "lus": 4962,
      "ene": 4963,
      "Ġdut": 4964,
      "Ġstill": 4965,
      "Ġventures": 4966,
      "ĠPe": 4967,
      "Ġplaced": 4968,
      "Ġmechan": 4969,
      "ENS": 4970,
      "Ġjurisdiction": 4971,
      "Ġquantities": 4972,
      "Ġpipeline": 4973,
      "ĠDivision": 4974,
      "Ġtechniques": 4975,
      "uild": 4976,
      "Ġinj": 4977,
      "ĠCF": 4978,
      "Ġhalf": 4979,
      "forming": 4980,
      "ĠLaw": 4981,
      "ological": 4982,
      "acks": 4983,
      "ĠComprehensive": 4984,
      "Ġadministration": 4985,
      "Ġadded": 4986,
      "Ġopportunity": 4987,
      "Ġalleged": 4988,
      "Ġlawsuits": 4989,
      "ĠOrganizations": 4990,
      "Ġpressure": 4991,
      "Ġhazardous": 4992,
      "emiconductor": 4993,
      "Ġforeseeable": 4994,
      "razil": 4995,
      "02": 4996,
      "Effective": 4997,
      "fers": 4998,
      "Ġlik": 4999,
      "Ġmatch": 5000,
      "Ġpaying": 5001,
      "Ġintercompany": 5002,
      "Ġthereafter": 5003,
      "Ġmonetary": 5004,
      "ĠAgreements": 5005,
      "Ġpermanent": 5006,
      "ĠInvestments": 5007,
      "Ġcreated": 5008,
      "Ġprospective": 5009,
      "Ġclear": 5010,
      "Ġnames": 5011,
      "ĠGovernment": 5012,
      "Ġindemnification": 5013,
      "Ġadvisory": 5014,
      "Ġsustained": 5015,
      "Ġtreated": 5016,
      "ĠOblig": 5017,
      "Ac": 5018,
      "Rest": 5019,
      "Ġrevers": 5020,
      "Ġgold": 5021,
      "Ġassigned": 5022,
      "Ġcommitted": 5023,
      "ĠTR": 5024,
      "ĠHome": 5025,
      "Ġinterru": 5026,
      "Ġapproximate": 5027,
      "Ġgrowing": 5028,
      "erivative": 5029,
      "Ġexposures": 5030,
      "Ġpromissory": 5031,
      "Ġrelease": 5032,
      "ĠKingdom": 5033,
      "Ġfamily": 5034,
      "Ġactuar": 5035,
      "Direct": 5036,
      "Not": 5037,
      "UC": 5038,
      "Ġfall": 5039,
      "Ġdaily": 5040,
      "Ġassemb": 5041,
      "ĠPa": 5042,
      "Ġcompens": 5043,
      "empt": 5044,
      "Ġregions": 5045,
      "ecurit": 5046,
      "Ġissuer": 5047,
      "Ġcommercially": 5048,
      "Ġdenominated": 5049,
      "Ġseasonal": 5050,
      "Ġpand": 5051,
      "icated": 5052,
      "Ġincent": 5053,
      "ĠAN": 5054,
      "Ġresid": 5055,
      "endence": 5056,
      "Ġexpensive": 5057,
      "aming": 5058,
      "lict": 5059,
      "Ġfacilit": 5060,
      "ople": 5061,
      "ARK": 5062,
      "Ġidentical": 5063,
      "Ġaccrual": 5064,
      "Ġawarded": 5065,
      "Ġphysicians": 5066,
      "mployees": 5067,
      "Ġhandling": 5068,
      "HAR": 5069,
      "Upon": 5070,
      "turn": 5071,
      "Ġaround": 5072,
      "Ġreach": 5073,
      "Ġbid": 5074,
      "ĠPurch": 5075,
      "Ġframework": 5076,
      "ĠEv": 5077,
      "ĠON": 5078,
      "Ġunderstanding": 5079,
      "Ġregulated": 5080,
      "Ġrefund": 5081,
      "elling": 5082,
      "Ġdistribute": 5083,
      "Ġassessments": 5084,
      "Ġidentifiable": 5085,
      "observable": 5086,
      "COME": 5087,
      "Ġbuildings": 5088,
      "pected": 5089,
      "Ġrestaurant": 5090,
      "elihood": 5091,
      "ĠEQUITY": 5092,
      "Ġwholesale": 5093,
      "Ġlikelihood": 5094,
      "ader": 5095,
      "ger": 5096,
      "Ġinadequ": 5097,
      "Ġfutures": 5098,
      "Ġmut": 5099,
      "ĠSch": 5100,
      "Ġpertain": 5101,
      "Ġexpires": 5102,
      "ĠBrazil": 5103,
      "ump": 5104,
      "Ġspl": 5105,
      "Ġbecomes": 5106,
      "Ġextension": 5107,
      "Ġforms": 5108,
      "parties": 5109,
      "sequently": 5110,
      "Ġemb": 5111,
      "ĠMedicaid": 5112,
      "Ġhospitals": 5113,
      "HLB": 5114,
      "After": 5115,
      "west": 5116,
      "Ġchemical": 5117,
      "Ġnom": 5118,
      "active": 5119,
      "urers": 5120,
      "ĠTread": 5121,
      "Ġmeasurements": 5122,
      "Ġtargeted": 5123,
      "Compensation": 5124,
      "Ġ------------": 5125,
      "pects": 5126,
      "ĠAdministration": 5127,
      "Ġstrength": 5128,
      "ĠSponsoring": 5129,
      "employee": 5130,
      "ĠTreadway": 5131,
      "69": 5132,
      "BER": 5133,
      "RB": 5134,
      "SEC": 5135,
      "oly": 5136,
      "Ġexit": 5137,
      "Ġhour": 5138,
      "otive": 5139,
      "ĠRES": 5140,
      "egal": 5141,
      "Ġproved": 5142,
      "Ġincremental": 5143,
      "Ġpurchasing": 5144,
      "ĠVIE": 5145,
      "Ġ80": 5146,
      "Ġmethodology": 5147,
      "Ġutilizing": 5148,
      "yalty": 5149,
      "uck": 5150,
      "Ġsmaller": 5151,
      "Ġcarriers": 5152,
      "Ġcells": 5153,
      "Ġrestaurants": 5154,
      "Ġshows": 5155,
      ");": 5156,
      "Le": 5157,
      "Topic": 5158,
      "free": 5159,
      "erce": 5160,
      "aterial": 5161,
      "Ġsyn": 5162,
      "Ġ120": 5163,
      "Ġ38": 5164,
      "Ġcompound": 5165,
      "ĠMich": 5166,
      "ĠStreet": 5167,
      "Ġregulators": 5168,
      "Ġ48": 5169,
      "ager": 5170,
      "123": 5171,
      "Ġnecessarily": 5172,
      "Ġcommunities": 5173,
      "Ġproduced": 5174,
      "ĠPerformance": 5175,
      "ĠMeasure": 5176,
      "Ġevery": 5177,
      "ĠEmployment": 5178,
      "dered": 5179,
      "Ġage": 5180,
      "head": 5181,
      "Ġmakes": 5182,
      "Ġgoing": 5183,
      "Ġunvested": 5184,
      "acific": 5185,
      "ĠUnion": 5186,
      "ASC": 5187,
      "ientific": 5188,
      "Ġlesser": 5189,
      "Ġworkers": 5190,
      "Ġbrands": 5191,
      "Ġdeclines": 5192,
      "Ġachievement": 5193,
      "LOS": 5194,
      "Ġfrequent": 5195,
      "accrual": 5196,
      "uit": 5197,
      "inates": 5198,
      "ars": 5199,
      "urb": 5200,
      "ĠFood": 5201,
      "ĠRSUs": 5202,
      "Ġappreciation": 5203,
      "Ġundert": 5204,
      "ĠUt": 5205,
      "Ġmature": 5206,
      "ĠGas": 5207,
      "ĠWill": 5208,
      "Ġthereof": 5209,
      "Ġrout": 5210,
      "Ġdilutive": 5211,
      "Ġpostretirement": 5212,
      "Ġbacklog": 5213,
      "ĠSheet": 5214,
      "Ġefficacy": 5215,
      "ĠSecret": 5216,
      "Ġsupervision": 5217,
      "Ġeduc": 5218,
      "ĠObligations": 5219,
      "opp": 5220,
      "Ġpage": 5221,
      "Ġreb": 5222,
      "Ġexce": 5223,
      "ĠAG": 5224,
      "ĠFile": 5225,
      "Ġprint": 5226,
      "ĠEmployee": 5227,
      "istor": 5228,
      "aces": 5229,
      "ependence": 5230,
      "Through": 5231,
      "Ġformul": 5232,
      "Ġliquidation": 5233,
      "balance": 5234,
      "Ġwhereby": 5235,
      "iana": 5236,
      "ĠExpenses": 5237,
      "Ġrepurchased": 5238,
      "which": 5239,
      "ĠProtection": 5240,
      "Ġundiscounted": 5241,
      "Ġpandemic": 5242,
      "59": 5243,
      "Ġtangible": 5244,
      "ental": 5245,
      "Ġthus": 5246,
      "Ġvideo": 5247,
      "ĠOEM": 5248,
      "Ġcommenced": 5249,
      "Ġprevail": 5250,
      "Ġupd": 5251,
      "llino": 5252,
      "Ġdism": 5253,
      "Ġimpairments": 5254,
      "Ġformed": 5255,
      "125": 5256,
      "Ġsupporting": 5257,
      "333": 5258,
      "ĠRELATED": 5259,
      "Ġcentral": 5260,
      "Ġexecuted": 5261,
      "Ġ401": 5262,
      "Ġprofessionals": 5263,
      "Ġmitigate": 5264,
      "ĠConting": 5265,
      "onouncements": 5266,
      "llinois": 5267,
      "BA": 5268,
      "ĠCustom": 5269,
      "otechnology": 5270,
      "performing": 5271,
      "reshold": 5272,
      "ĠMark": 5273,
      "Ġpreclinical": 5274,
      "Those": 5275,
      "Ġinitially": 5276,
      "Ġcovering": 5277,
      "ique": 5278,
      "ĠIncludes": 5279,
      "Ġheadquarters": 5280,
      "Moreover": 5281,
      "Ġincentives": 5282,
      "IA": 5283,
      "Pre": 5284,
      "tical": 5285,
      "Ġcas": 5286,
      "Ġser": 5287,
      "Ġtop": 5288,
      "Ġmand": 5289,
      "Ġlog": 5290,
      "ĠFOR": 5291,
      "Ġintends": 5292,
      "ĠOp": 5293,
      "Ġappeal": 5294,
      "ĠBanc": 5295,
      "ĠGoodwill": 5296,
      "Ġcontrolled": 5297,
      "ANS": 5298,
      "Ġsells": 5299,
      "lock": 5300,
      "Ġindications": 5301,
      "offs": 5302,
      "Ġphysical": 5303,
      "Ġdisruption": 5304,
      "Recent": 5305,
      "Ġshipping": 5306,
      "ĠOPERATIONS": 5307,
      "Ġactuarial": 5308,
      "57": 5309,
      "New": 5310,
      "syl": 5311,
      "hest": 5312,
      "Ġway": 5313,
      "Ġgive": 5314,
      "ĠFinance": 5315,
      "ĠEd": 5316,
      "Ġappra": 5317,
      "Ġimpacts": 5318,
      "Ġfacts": 5319,
      "olved": 5320,
      "Ġfluctuate": 5321,
      "Ġfavor": 5322,
      "insic": 5323,
      "Ġschedules": 5324,
      "Ġparent": 5325,
      "Depreciation": 5326,
      "THER": 5327,
      "vania": 5328,
      "Ġinadequate": 5329,
      "sylvania": 5330,
      "CON": 5331,
      "Current": 5332,
      "File": 5333,
      "FORM": 5334,
      "ingu": 5335,
      "ĠSw": 5336,
      "Ġamounted": 5337,
      "ĠGold": 5338,
      "Ġpreced": 5339,
      "Ġinstances": 5340,
      "Ġthereby": 5341,
      "ĠChanges": 5342,
      "Ġaccordingly": 5343,
      "Ġqualitative": 5344,
      "Ġreserved": 5345,
      "Competition": 5346,
      "Ġlawsuit": 5347,
      "ĠLicense": 5348,
      "ĠPharmaceuticals": 5349,
      "collect": 5350,
      "ein": 5351,
      "rid": 5352,
      "Ġseve": 5353,
      "Ġbudg": 5354,
      "unicip": 5355,
      "Ind": 5356,
      "ortgage": 5357,
      "Ġvir": 5358,
      "ĠMet": 5359,
      "tra": 5360,
      "Ġimposed": 5361,
      "Ġcho": 5362,
      "Ġcustomary": 5363,
      "Ġmainly": 5364,
      "ESS": 5365,
      "Ġfunction": 5366,
      "ĠYears": 5367,
      "organization": 5368,
      "ĠPennsylvania": 5369,
      "ĠSecretary": 5370,
      "unicipal": 5371,
      "-(": 5372,
      "Capital": 5373,
      "ave": 5374,
      "lant": 5375,
      "ming": 5376,
      "ota": 5377,
      "ĠDA": 5378,
      "âĢĿ.": 5379,
      "Ġpursue": 5380,
      "Ġdeprec": 5381,
      "Ġreflecting": 5382,
      "ISK": 5383,
      "Ġcomparison": 5384,
      "Ġdownturn": 5385,
      "Research": 5386,
      "Ġversus": 5387,
      "Ġdiagnost": 5388,
      "Ġintrinsic": 5389,
      ".\"": 5390,
      "750": 5391,
      "Business": 5392,
      "Loss": 5393,
      "Ġtreasury": 5394,
      "iced": 5395,
      "aser": 5396,
      "Ġeight": 5397,
      "Ġaspects": 5398,
      "Ġthreshold": 5399,
      "Ġprohibit": 5400,
      "Ġchain": 5401,
      "ĠThere": 5402,
      "ANAG": 5403,
      "Ġdistributor": 5404,
      "Ġspecifically": 5405,
      "Ġremains": 5406,
      "Ġlimitation": 5407,
      "Ġconflict": 5408,
      "Ġviolations": 5409,
      "Ġcounterparties": 5410,
      "Ġdebentures": 5411,
      "Ġsevere": 5412,
      "64": 5413,
      "Appro": 5414,
      "Co": 5415,
      "YS": 5416,
      "iates": 5417,
      "onom": 5418,
      "Ġput": 5419,
      "Ġsitu": 5420,
      "Ġmerg": 5421,
      "Ġexception": 5422,
      "Ġunex": 5423,
      "Ġapplying": 5424,
      "ĠCommercial": 5425,
      "ĠProf": 5426,
      "Ġportions": 5427,
      "ERC": 5428,
      "Ġimplementing": 5429,
      "Ġretailers": 5430,
      "Ġemissions": 5431,
      "ĠSuper": 5432,
      "ĠUSA": 5433,
      "Ġyields": 5434,
      "Ġdivest": 5435,
      "ĠBeneficial": 5436,
      "Ġpackaging": 5437,
      "ANAGEMENT": 5438,
      "Equ": 5439,
      "gthe": 5440,
      "Ġlate": 5441,
      "Ġproport": 5442,
      "ĠDrug": 5443,
      "Ġintangibles": 5444,
      "ruit": 5445,
      "ĠIllinois": 5446,
      "Ġmarketed": 5447,
      "Ġpled": 5448,
      "Ġacquiring": 5449,
      "END": 5450,
      "Ġpattern": 5451,
      "ĠAgent": 5452,
      "ĠAccounts": 5453,
      "Ġcontribute": 5454,
      "Ġoriginally": 5455,
      "Ġreceipts": 5456,
      "ĠGuarant": 5457,
      "Ġdisruptions": 5458,
      "ĠContracts": 5459,
      "Generally": 5460,
      "ĠSupplementary": 5461,
      "600": 5462,
      "AV": 5463,
      "BR": 5464,
      "PC": 5465,
      "Significant": 5466,
      "den": 5467,
      "face": 5468,
      "met": 5469,
      "oor": 5470,
      "ĠSaf": 5471,
      "Ġdeath": 5472,
      "Ġunith": 5473,
      "Ġadmin": 5474,
      "ĠMaster": 5475,
      "Ġexpired": 5476,
      "Ġimplied": 5477,
      "Ġclar": 5478,
      "Ġ75": 5479,
      "Ġauthorization": 5480,
      "Ġcollected": 5481,
      "Ġindividually": 5482,
      "Ġsecondary": 5483,
      "Ġdetailed": 5484,
      "Ġmotion": 5485,
      "Ġdefendants": 5486,
      "reme": 5487,
      "Ġdismiss": 5488,
      "effective": 5489,
      "field": 5490,
      "ersey": 5491,
      "ĠTier": 5492,
      "ĠTitle": 5493,
      "Ġtransl": 5494,
      "Ġcontractors": 5495,
      "Ġestimating": 5496,
      "ARY": 5497,
      "evada": 5498,
      "ĠFees": 5499,
      "Ġremained": 5500,
      "Ġmedic": 5501,
      "Ġproducing": 5502,
      "Ġmanagers": 5503,
      "Ġattorn": 5504,
      "phone": 5505,
      "Ġmilestones": 5506,
      "Ġrepurchases": 5507,
      "Ġindirectly": 5508,
      "TORS": 5509,
      "Ġretrospect": 5510,
      "ĠVirgin": 5511,
      "Future": 5512,
      "FIC": 5513,
      "OV": 5514,
      "UM": 5515,
      "icit": 5516,
      "ceiv": 5517,
      "atell": 5518,
      "Ġhousing": 5519,
      "ortization": 5520,
      "Ġvery": 5521,
      "ender": 5522,
      "Ġ33": 5523,
      "Ġassign": 5524,
      "odd": 5525,
      "Ġrepaid": 5526,
      "ĠJersey": 5527,
      "Ġpayroll": 5528,
      "Ġhedged": 5529,
      "Ġeffort": 5530,
      "ĠIntangible": 5531,
      "Ġdeclined": 5532,
      "ĠExpense": 5533,
      "Ġautomat": 5534,
      "Ġnegotiated": 5535,
      "Ġsecrets": 5536,
      "Over": 5537,
      "Ġterror": 5538,
      "inable": 5539,
      "Ġreverse": 5540,
      "Ġbases": 5541,
      "asis": 5542,
      "Ġapplies": 5543,
      "Ġuser": 5544,
      "ĠTe": 5545,
      "Ġcontam": 5546,
      "like": 5547,
      "Ġfilings": 5548,
      "ufacturing": 5549,
      "ĠRegistered": 5550,
      "ĠINCOME": 5551,
      "Ġindicative": 5552,
      "Ġparticipating": 5553,
      "Ġentering": 5554,
      "Ġcapacities": 5555,
      "ĠNetwork": 5556,
      "ĠSched": 5557,
      "Ġincreasingly": 5558,
      "ĠCOMPAN": 5559,
      "DC": 5560,
      "Gross": 5561,
      "Ġsecurit": 5562,
      "lood": 5563,
      "ĠAff": 5564,
      "Ġunus": 5565,
      "ĠPark": 5566,
      "ĠNDA": 5567,
      "ĠNevada": 5568,
      "ĠEstate": 5569,
      "Ġallowed": 5570,
      "Ġrealizable": 5571,
      "ĠIPO": 5572,
      "150": 5573,
      "MG": 5574,
      "dle": 5575,
      "light": 5576,
      "oid": 5577,
      "Ġow": 5578,
      "omet": 5579,
      "Ġcode": 5580,
      "ocial": 5581,
      "ĠEPA": 5582,
      "ificates": 5583,
      "Ġregularly": 5584,
      "Ġreceives": 5585,
      "Ġdispl": 5586,
      "aims": 5587,
      "Ġevaluates": 5588,
      "ritical": 5589,
      "TAIN": 5590,
      "Ġground": 5591,
      "Ġvolunt": 5592,
      "Ġtenants": 5593,
      "Ġenhanced": 5594,
      "ĠLiabilities": 5595,
      "Ġquantitative": 5596,
      "Ġdispositions": 5597,
      "ĠWarrants": 5598,
      "Ġrecommend": 5599,
      "Ġduration": 5600,
      "ĠREGIS": 5601,
      "Ġsplit": 5602,
      "uis": 5603,
      "alse": 5604,
      "ĠCoun": 5605,
      "ĠSummary": 5606,
      "quency": 5607,
      "ĠFHLB": 5608,
      "Ġappear": 5609,
      "ailure": 5610,
      "Ġ1992": 5611,
      "ECU": 5612,
      "Ġrendered": 5613,
      "mbol": 5614,
      "Ġoptim": 5615,
      "Ġappointed": 5616,
      "etrole": 5617,
      "Ġtools": 5618,
      "ĠAustralia": 5619,
      "61": 5620,
      "BL": 5621,
      "CF": 5622,
      "FIN": 5623,
      "Of": 5624,
      "ead": 5625,
      "ox": 5626,
      "Ġerror": 5627,
      "Ġter": 5628,
      "Ġsan": 5629,
      "Ġsemiconductor": 5630,
      "Ġbilled": 5631,
      "ete": 5632,
      "ĠCompanies": 5633,
      "Ġ2022": 5634,
      "ĠMD": 5635,
      "ĠUp": 5636,
      "Ġtransfers": 5637,
      "rought": 5638,
      "ĠProcedures": 5639,
      "Ġscale": 5640,
      "obert": 5641,
      "ĠREPOR": 5642,
      "Ġexceeded": 5643,
      "Ġreleased": 5644,
      "ĠManager": 5645,
      "Ġdetails": 5646,
      "Ġfeature": 5647,
      "Ġemerging": 5648,
      "Ġinfluence": 5649,
      "ĠGeor": 5650,
      "etroleum": 5651,
      "Disc": 5652,
      "PR": 5653,
      "Sc": 5654,
      "edded": 5655,
      "Ġreached": 5656,
      "Ġbill": 5657,
      "Ġincorporation": 5658,
      "Ġwithhold": 5659,
      "Information": 5660,
      "ĠRef": 5661,
      "ĠRules": 5662,
      "ashington": 5663,
      "unded": 5664,
      "Ġapproximates": 5665,
      "Ġdeterminable": 5666,
      "ĠConsumer": 5667,
      "Ġtested": 5668,
      "cular": 5669,
      "ĠSchedule": 5670,
      "Ġstatutes": 5671,
      "ĠFirm": 5672,
      "Frank": 5673,
      "Ġachieving": 5674,
      "ĠRetirement": 5675,
      "Ġzero": 5676,
      "collectively": 5677,
      "ECUTIVE": 5678,
      "EAR": 5679,
      "HI": 5680,
      "da": 5681,
      "ville": 5682,
      "ally": 5683,
      "oming": 5684,
      "Ġbl": 5685,
      "Ġet": 5686,
      "Ġunobservable": 5687,
      "Ġassured": 5688,
      "Ġwhom": 5689,
      "izer": 5690,
      "Ġshift": 5691,
      "Ġretention": 5692,
      "ysts": 5693,
      "ĠProceed": 5694,
      "Ġconsidering": 5695,
      "Â®,": 5696,
      "Ġlender": 5697,
      "Ġpeople": 5698,
      "Ġforfeitures": 5699,
      "ITIES": 5700,
      "Ġanalyz": 5701,
      "ĠSchedules": 5702,
      "Cons": 5703,
      "Des": 5704,
      "Most": 5705,
      "oma": 5706,
      "loud": 5707,
      "ĠAf": 5708,
      "Ġgraph": 5709,
      "Ġvis": 5710,
      "ounter": 5711,
      "Ġcommission": 5712,
      "Ġtrig": 5713,
      "amm": 5714,
      "Ġserving": 5715,
      "Ġmarketplace": 5716,
      "Ġupgr": 5717,
      "Ġdefense": 5718,
      "Ġmetal": 5719,
      "ventories": 5720,
      "raft": 5721,
      "Ġdraw": 5722,
      "iluted": 5723,
      "Ġpresence": 5724,
      "ĠSpec": 5725,
      "Ġinstallments": 5726,
      "Ġviolation": 5727,
      "Ġgoals": 5728,
      "Ġchannels": 5729,
      "Ġtherapeutic": 5730,
      "inguish": 5731,
      "Ġpreceding": 5732,
      "ĠVirginia": 5733,
      "Level": 5734,
      "Ġ========": 5735,
      "Ġche": 5736,
      "Ġcross": 5737,
      "ask": 5738,
      "eterm": 5739,
      "Ġ$.": 5740,
      "Ġunique": 5741,
      "Ġprec": 5742,
      "Ġobs": 5743,
      "fully": 5744,
      "vestment": 5745,
      "Ġdemands": 5746,
      "Ġprofitable": 5747,
      "Ġconsumm": 5748,
      "Ġadequately": 5749,
      "Ġfirms": 5750,
      "audited": 5751,
      "Ġdiseases": 5752,
      "Risks": 5753,
      "ĠAssociation": 5754,
      "Ġsymbol": 5755,
      "Ġwireless": 5756,
      "62": 5757,
      "Even": 5758,
      "NG": 5759,
      "lands": 5760,
      "insured": 5761,
      "rew": 5762,
      "ening": 5763,
      "Ġmunicipal": 5764,
      "ĠCor": 5765,
      "ĠCare": 5766,
      "ulf": 5767,
      "ulg": 5768,
      "ĠAR": 5769,
      "ĠEast": 5770,
      "Ġacts": 5771,
      "ittees": 5772,
      "ĠProject": 5773,
      "Ġforec": 5774,
      "Ġgovernments": 5775,
      "Ġclasses": 5776,
      "Ġprepayment": 5777,
      "Ġexamining": 5778,
      "ĠDisclosures": 5779,
      "ĠThis": 5780,
      "Ġstrengthe": 5781,
      "uilding": 5782,
      "ĠDATA": 5783,
      "Foreign": 5784,
      "Histor": 5785,
      "RES": 5786,
      "ST": 5787,
      "nes": 5788,
      "itivity": 5789,
      "oration": 5790,
      "Ġsolution": 5791,
      "ĠCom": 5792,
      "ĠComb": 5793,
      "Ġ32": 5794,
      "Ġexport": 5795,
      "izon": 5796,
      "ĠEthics": 5797,
      "ĠStaff": 5798,
      "Ġenroll": 5799,
      "ĠProv": 5800,
      "TION": 5801,
      "Ġmodification": 5802,
      "Ġworkforce": 5803,
      "ĠLouis": 5804,
      "plus": 5805,
      "Ġbrok": 5806,
      "Ġprivacy": 5807,
      "uclear": 5808,
      "Ġannivers": 5809,
      "Ġlaboratory": 5810,
      "Ġforecasted": 5811,
      "Ġrapidly": 5812,
      "Ġpreferences": 5813,
      "ĠGermany": 5814,
      "ĠContingencies": 5815,
      "DS": 5816,
      "Se": 5817,
      "cers": 5818,
      "leet": 5819,
      "Ġhost": 5820,
      "ĠDEC": 5821,
      "ĠPension": 5822,
      "Ġnotional": 5823,
      "ĠDep": 5824,
      "Ġcommence": 5825,
      "ĠWashington": 5826,
      "contract": 5827,
      "ĠRevenues": 5828,
      "ITF": 5829,
      "ĠINTER": 5830,
      "Ġresell": 5831,
      "Ġaccruals": 5832,
      "Ġinstitutional": 5833,
      "Ġrecoverability": 5834,
      "Ġpressures": 5835,
      "Ġtenant": 5836,
      "IREC": 5837,
      "ĠDistribution": 5838,
      "MB": 5839,
      "MENT": 5840,
      "filed": 5841,
      "gy": 5842,
      "Ġsatell": 5843,
      "ential": 5844,
      "asers": 5845,
      "cel": 5846,
      "imated": 5847,
      "ĠSm": 5848,
      "Ġsuitable": 5849,
      "ĠPay": 5850,
      "ĠMass": 5851,
      "Ġexpose": 5852,
      "ado": 5853,
      "Ġrelief": 5854,
      "Ġactively": 5855,
      "Ġdetection": 5856,
      "Ġsubjective": 5857,
      "Ġ45": 5858,
      "Ġminor": 5859,
      "Ġestablishes": 5860,
      "ĠParticip": 5861,
      "ĠTrustee": 5862,
      "Ġunders": 5863,
      "Ġdeductible": 5864,
      "laws": 5865,
      "ĠBenefit": 5866,
      "Ġsolely": 5867,
      "Ġinterpretations": 5868,
      "Ġcease": 5869,
      "Ġweeks": 5870,
      "ael": 5871,
      "bearing": 5872,
      "iences": 5873,
      "point": 5874,
      "road": 5875,
      "Ġhyd": 5876,
      "ĠAP": 5877,
      "Ġvia": 5878,
      "ĠRed": 5879,
      "Ġrecruit": 5880,
      "Ġtherein": 5881,
      "vailable": 5882,
      "ĠAgency": 5883,
      "Ġaccording": 5884,
      "ĠAnd": 5885,
      "Ġconnect": 5886,
      "deal": 5887,
      "Ġadequacy": 5888,
      "EMBER": 5889,
      "Ġpromulg": 5890,
      "Ġdelayed": 5891,
      "Ġclean": 5892,
      "63": 5893,
      "FF": 5894,
      "IGN": 5895,
      "Qu": 5896,
      "Ġing": 5897,
      "Ġbring": 5898,
      "ung": 5899,
      "âĢ¦": 5900,
      "Ġbearing": 5901,
      "anticip": 5902,
      "ĠEarnings": 5903,
      "ĠOTC": 5904,
      "ensions": 5905,
      "Ġprocessed": 5906,
      "Ġgovernance": 5907,
      "Ġfulfill": 5908,
      "Ġgenerating": 5909,
      "Ġcollateralized": 5910,
      "Revenues": 5911,
      "Ġdivision": 5912,
      "Ġredeemed": 5913,
      "Ġapprais": 5914,
      "HIB": 5915,
      "ford": 5916,
      "nect": 5917,
      "Ġtaking": 5918,
      "Ġwind": 5919,
      "asda": 5920,
      "Ġnine": 5921,
      "ĠAL": 5922,
      "Ġsteel": 5923,
      "ortized": 5924,
      "Ġvac": 5925,
      "ĠPort": 5926,
      "oses": 5927,
      "ĠEm": 5928,
      "ĠOptions": 5929,
      "Ġapprove": 5930,
      "Ġpayors": 5931,
      "Ġdisclose": 5932,
      "Ġ101": 5933,
      "Ġ70": 5934,
      "CIES": 5935,
      "Ġdividing": 5936,
      "ricult": 5937,
      "Ġprepaid": 5938,
      "Ġaffiliated": 5939,
      "Ġpossibility": 5940,
      "Product": 5941,
      "Ġautomotive": 5942,
      "Ġplatforms": 5943,
      "ĠAdministrative": 5944,
      "ĠStrateg": 5945,
      "ĠEstimates": 5946,
      "Ġexceptions": 5947,
      "Ġprevailing": 5948,
      "FORMATION": 5949,
      "Equity": 5950,
      "HIBIT": 5951,
      "asdaq": 5952,
      "imilar": 5953,
      "Ġprohib": 5954,
      "usett": 5955,
      "ĠSER": 5956,
      "ĠDO": 5957,
      "ĠNOL": 5958,
      "andon": 5959,
      "ĠOP": 5960,
      "ĠLife": 5961,
      "Ġleasing": 5962,
      "Ġheav": 5963,
      "achusett": 5964,
      "Ġprime": 5965,
      "Ġfactor": 5966,
      "Ġdelin": 5967,
      "Ġsecuring": 5968,
      "One": 5969,
      "Ġuncollect": 5970,
      "Ġexecutives": 5971,
      "Ġbrokerage": 5972,
      "ĠCertificate": 5973,
      "ticles": 5974,
      "Ġradio": 5975,
      "Ġwarehouse": 5976,
      "Ġfacilitate": 5977,
      "Ġmutual": 5978,
      "Ġfrequently": 5979,
      "Ġterrit": 5980,
      "ĠDECEMBER": 5981,
      "Rep": 5982,
      "ne": 5983,
      "Ġi": 5984,
      "essee": 5985,
      "Ġbrought": 5986,
      "Ġstream": 5987,
      "ĠDodd": 5988,
      "ession": 5989,
      "Ġcommencing": 5990,
      "ĠTH": 5991,
      "Ġprelim": 5992,
      "Ġissuable": 5993,
      "ĠCommunications": 5994,
      "ĠCommitments": 5995,
      "Ġfeed": 5996,
      "etting": 5997,
      "ettlement": 5998,
      "ĠEnvironmental": 5999,
      "ĠINFORMATION": 6000,
      "viously": 6001,
      "Ġorigination": 6002,
      "ĠElectric": 6003,
      "Ġweaknesses": 6004,
      "pecially": 6005,
      "ĠPatent": 6006,
      "ĠSTOCKHOLD": 6007,
      "Ġunitholders": 6008,
      "Ġanniversary": 6009,
      "achusetts": 6010,
      "Failure": 6011,
      "TIN": 6012,
      "UED": 6013,
      "bit": 6014,
      "comes": 6015,
      "kn": 6016,
      "Ġher": 6017,
      "Ġaware": 6018,
      "eter": 6019,
      "ĠAD": 6020,
      "Ġoperators": 6021,
      "ĠBio": 6022,
      "Ġrecovered": 6023,
      "ades": 6024,
      "Ġdiscovery": 6025,
      "mph": 6026,
      "itting": 6027,
      "posals": 6028,
      "uction": 6029,
      "Ġ123": 6030,
      "Ġanalysts": 6031,
      "Ġclosely": 6032,
      "EPEND": 6033,
      "Ġpopulation": 6034,
      "Acquisition": 6035,
      "Ġembedded": 6036,
      "RP": 6037,
      "SC": 6038,
      "cons": 6039,
      "gages": 6040,
      "Ġill": 6041,
      "Ġ--------------------------------": 6042,
      "atri": 6043,
      "ana": 6044,
      "ĠAM": 6045,
      "Inter": 6046,
      "Ġcoal": 6047,
      "Ġrise": 6048,
      "Ġ36": 6049,
      "ĠMod": 6050,
      "Ġexpanding": 6051,
      "Ġusage": 6052,
      "Ġtrack": 6053,
      "ĠLP": 6054,
      "ĠHOLD": 6055,
      "Ġreceiving": 6056,
      "Ġ99": 6057,
      "Ġmeasuring": 6058,
      "Ġprogramming": 6059,
      "Ġremainder": 6060,
      "Ġregardless": 6061,
      "Ġfailures": 6062,
      "Ġconstruct": 6063,
      "ĠAdjusted": 6064,
      "Ġbranch": 6065,
      "ĠControls": 6066,
      "Ġcertificate": 6067,
      "Ġinstallation": 6068,
      "Ġgeograph": 6069,
      "Ġfreight": 6070,
      "ĠSecured": 6071,
      "Ġreadily": 6072,
      "Ġcounterparty": 6073,
      "Ġvendor": 6074,
      "Ġespecially": 6075,
      "Ġsensitive": 6076,
      "Ġshipments": 6077,
      "front": 6078,
      "specific": 6079,
      "ĠRevolving": 6080,
      "ĠBancorp": 6081,
      "Ġsanct": 6082,
      "Historically": 6083,
      ".âĢĻ": 6084,
      "89": 6085,
      "Su": 6086,
      "Spec": 6087,
      "Ġwww": 6088,
      "olina": 6089,
      "Ġrail": 6090,
      "ĠIT": 6091,
      "Ġliable": 6092,
      "Ġsalaries": 6093,
      "Ġabandon": 6094,
      "Ġquick": 6095,
      "Ġregular": 6096,
      "Ġdeplo": 6097,
      "Ġnewly": 6098,
      "ĠWater": 6099,
      "ividends": 6100,
      "Ġ500": 6101,
      "Ġforegoing": 6102,
      "ANG": 6103,
      "Ġdisrupt": 6104,
      "Ġarr": 6105,
      "Ġwhenever": 6106,
      "Ġauthorizations": 6107,
      "Ġindication": 6108,
      "Ġimproving": 6109,
      "Ġutilities": 6110,
      "ĠAdv": 6111,
      "Ġdifficulty": 6112,
      "ĠFunds": 6113,
      "Ġcontingencies": 6114,
      "ĠRestricted": 6115,
      "Share": 6116,
      "CAOB": 6117,
      "Ġinvestigation": 6118,
      "Ġjoined": 6119,
      "Ġmisstatement": 6120,
      "Ġflexibility": 6121,
      "Ġduties": 6122,
      "Ġdiagnostic": 6123,
      "Approximately": 6124,
      "Ġowed": 6125,
      "Ġwithholding": 6126,
      "ĠMassachusetts": 6127,
      "AM": 6128,
      "Cl": 6129,
      "Per": 6130,
      "pite": 6131,
      "rum": 6132,
      "Ġ----------------": 6133,
      "Ġclosure": 6134,
      "Ġcamp": 6135,
      "Ġsil": 6136,
      "Ġmuch": 6137,
      "ĠCD": 6138,
      "Ġproc": 6139,
      "ute": 6140,
      "Ġinclus": 6141,
      "ĠFinancing": 6142,
      "ĠPL": 6143,
      "ĠRobert": 6144,
      "Ġshipment": 6145,
      "ibilities": 6146,
      "ĠBorrow": 6147,
      "ualty": 6148,
      "Ġoverhead": 6149,
      "Ġcapitalization": 6150,
      "Ġdefect": 6151,
      "issue": 6152,
      "ERTAIN": 6153,
      "ĠReceiv": 6154,
      "Ġhighest": 6155,
      "Ġpharm": 6156,
      "ĠPrincipal": 6157,
      "Ġharmed": 6158,
      "Ġcalled": 6159,
      "ĠLosses": 6160,
      "Ġlabeling": 6161,
      "Ġinjury": 6162,
      "ĠSpecial": 6163,
      "Lived": 6164,
      "OP": 6165,
      "Part": 6166,
      "Section": 6167,
      "Tax": 6168,
      "capital": 6169,
      "Ġcol": 6170,
      "Ġfleet": 6171,
      "ician": 6172,
      "stant": 6173,
      "ĠSo": 6174,
      "Ġstations": 6175,
      "Ġver": 6176,
      "Ġacres": 6177,
      "amortized": 6178,
      "alls": 6179,
      "enefit": 6180,
      "Ġbenefici": 6181,
      "Ġdescription": 6182,
      "Ġassuming": 6183,
      "Ġoriginated": 6184,
      "ĠArrange": 6185,
      "Ġmembership": 6186,
      "Ġreimburs": 6187,
      "reasurer": 6188,
      "ready": 6189,
      "Ġbroadcast": 6190,
      "backed": 6191,
      "ĠImpairment": 6192,
      "Ġminimize": 6193,
      "ĠCOND": 6194,
      "Ġpublished": 6195,
      "Ġ-------": 6196,
      "ĠIndustrial": 6197,
      "Ġcycle": 6198,
      "ĠDISCLOS": 6199,
      "ĠWilliam": 6200,
      "ĠSafety": 6201,
      "74": 6202,
      "Bank": 6203,
      "Ġblood": 6204,
      "Ġthreat": 6205,
      "ĠPRC": 6206,
      "ĠMortgage": 6207,
      "ĠNasdaq": 6208,
      "Ġpursu": 6209,
      "Ġoutcomes": 6210,
      "Ġcontrolling": 6211,
      "Ġassumption": 6212,
      "inese": 6213,
      "Ġscientific": 6214,
      "Ġborrowed": 6215,
      "Ġmodifications": 6216,
      "Ġidentification": 6217,
      "Ġratably": 6218,
      "Ġresponsibilities": 6219,
      "ĠOne": 6220,
      "Ġvolatile": 6221,
      "Ġsurg": 6222,
      "Ġexecute": 6223,
      "ĠCodification": 6224,
      "Ġcertification": 6225,
      "Ġdeductions": 6226,
      "Ġlegisl": 6227,
      "Ġvarying": 6228,
      "Ġdealers": 6229,
      "Ġconcentration": 6230,
      "Ġfurnished": 6231,
      "Ġfloating": 6232,
      "ĠOverview": 6233,
      "Ġconcerns": 6234,
      "Ġsupplemental": 6235,
      "Ġoccupancy": 6236,
      "Ġundersigned": 6237,
      "Ġess": 6238,
      "inery": 6239,
      "ann": 6240,
      "essel": 6241,
      "Ġsolar": 6242,
      "icable": 6243,
      "stone": 6244,
      "ullet": 6245,
      "ĠFCC": 6246,
      "ĠPA": 6247,
      "ĠPacific": 6248,
      "Ġrun": 6249,
      "Ġcomposition": 6250,
      "ĠDepos": 6251,
      "ĠWorld": 6252,
      "TIONS": 6253,
      "ĠEnt": 6254,
      "Ġsupported": 6255,
      "ventory": 6256,
      "ĠHolding": 6257,
      "Ġeliminate": 6258,
      "Ġattractive": 6259,
      "ĠSouthern": 6260,
      "Ġtelephone": 6261,
      "ĠINDEPEND": 6262,
      "Ġmisstatements": 6263,
      "ĠEngine": 6264,
      "Ġexchanges": 6265,
      "Ġunexpected": 6266,
      "Ġpromulgated": 6267,
      "Ġpreliminary": 6268,
      "IV": 6269,
      "MI": 6270,
      "NERS": 6271,
      "lan": 6272,
      "Ġtum": 6273,
      "atin": 6274,
      "atter": 6275,
      "Ġcur": 6276,
      "Ġbad": 6277,
      "icially": 6278,
      "ides": 6279,
      "anches": 6280,
      "Ġcomplement": 6281,
      "ĠMAT": 6282,
      "ansas": 6283,
      "aded": 6284,
      "ĠJr": 6285,
      "orporations": 6286,
      "Ġoutl": 6287,
      "ĠChinese": 6288,
      "ASH": 6289,
      "Ġ740": 6290,
      "Ġinitiated": 6291,
      "Ġmortgages": 6292,
      "Ġstudent": 6293,
      "Ġdilution": 6294,
      "ĠRelationship": 6295,
      "Ġinvestigations": 6296,
      "CHED": 6297,
      "Ġdefinition": 6298,
      "Incre": 6299,
      "Ġpromotional": 6300,
      "Ġdeteriorate": 6301,
      "Ġsatisfaction": 6302,
      "Ġtranslated": 6303,
      "\",": 6304,
      "51": 6305,
      "Dollars": 6306,
      "GL": 6307,
      "UAL": 6308,
      "ground": 6309,
      "water": 6310,
      "unior": 6311,
      "Ġhyp": 6312,
      "ĠForeign": 6313,
      "Ġalready": 6314,
      "olidation": 6315,
      "Ġbeneficially": 6316,
      "Ġrealization": 6317,
      "located": 6318,
      "Ġunconsolidated": 6319,
      "Ġyour": 6320,
      "Ġcombinations": 6321,
      "Ġintegrate": 6322,
      "Ġexecution": 6323,
      "Ġcertificates": 6324,
      "TERS": 6325,
      "Ġinterpretation": 6326,
      "Ġsensitivity": 6327,
      "Ġjoining": 6328,
      "Ġweek": 6329,
      "Loans": 6330,
      "Ġescrow": 6331,
      "Ġproportion": 6332,
      "nesota": 6333,
      "04": 6334,
      "73": 6335,
      "900": 6336,
      "Corporate": 6337,
      "Est": 6338,
      "II": 6339,
      "Ġerr": 6340,
      "itz": 6341,
      "Ġfab": 6342,
      "arges": 6343,
      "Ġworth": 6344,
      "struction": 6345,
      "irst": 6346,
      "Ġvessel": 6347,
      "ĠFiled": 6348,
      "Ġperce": 6349,
      "ĠMount": 6350,
      "ĠMac": 6351,
      "lowance": 6352,
      "iscons": 6353,
      "rued": 6354,
      "Ġrelation": 6355,
      "ĠIRS": 6356,
      "Ġoutsour": 6357,
      "Ġcontinually": 6358,
      "Ġconstr": 6359,
      "Ġconstitute": 6360,
      "Ġcollectively": 6361,
      "ĠIntegrated": 6362,
      "Ġprevention": 6363,
      "Ġbreaches": 6364,
      "Contract": 6365,
      "Ġcommunication": 6366,
      "Amounts": 6367,
      "Ġgrade": 6368,
      "Ġomitted": 6369,
      "Property": 6370,
      "Ġserious": 6371,
      "isconsin": 6372,
      "700": 6373,
      "CR": 6374,
      "Ph": 6375,
      "SR": 6376,
      "family": 6377,
      "inant": 6378,
      "ened": 6379,
      "asive": 6380,
      "ĠSun": 6381,
      "Ġexhibits": 6382,
      "ectrum": 6383,
      "ĠAut": 6384,
      "ĠMA": 6385,
      "tribut": 6386,
      "aps": 6387,
      "Ġrelations": 6388,
      "Ġpartial": 6389,
      "ĠGreen": 6390,
      "Ġissuances": 6391,
      "astrop": 6392,
      "Ġ52": 6393,
      "ĠStockholder": 6394,
      "Ġsettlements": 6395,
      "ĠIndia": 6396,
      "Ġpracticable": 6397,
      "Ġimmaterial": 6398,
      "Ġsafe": 6399,
      "Ġsatisfied": 6400,
      "Ġassistance": 6401,
      "Ġgoal": 6402,
      "Ġconfidentiality": 6403,
      "Liquidity": 6404,
      "ĠNYSE": 6405,
      "Ġbudget": 6406,
      "TINUED": 6407,
      "71": 6408,
      "None": 6409,
      "iber": 6410,
      "held": 6411,
      "Ġcorporations": 6412,
      "Ġmag": 6413,
      "iles": 6414,
      "idge": 6415,
      "ĠDec": 6416,
      "ĠMicro": 6417,
      "ĠRich": 6418,
      "ĠOm": 6419,
      "resentation": 6420,
      "101": 6421,
      "Ġvaluations": 6422,
      "Ġsettle": 6423,
      "Exp": 6424,
      "Ġfinished": 6425,
      "Ġproducers": 6426,
      "Ġorganized": 6427,
      "Ġ1986": 6428,
      "ĠMaterial": 6429,
      "Subsequent": 6430,
      "Ġpartnerships": 6431,
      "ĠCarolina": 6432,
      "Trans": 6433,
      "Ġshipped": 6434,
      "Ġplaintiffs": 6435,
      "Ġroutine": 6436,
      "ĠCOMPANY": 6437,
      "ĠUpdate": 6438,
      "ĠProceedings": 6439,
      "Ġingred": 6440,
      "Ġuncollectible": 6441,
      "EG": 6442,
      "Segment": 6443,
      "dilut": 6444,
      "ha": 6445,
      "lin": 6446,
      "Ġmicro": 6447,
      "Ġbilling": 6448,
      "ĠCurrency": 6449,
      "Ġincorporate": 6450,
      "ancing": 6451,
      "Ġ34": 6452,
      "ĠMs": 6453,
      "ĠMot": 6454,
      "ĠNom": 6455,
      "ĠLand": 6456,
      "ĠLabor": 6457,
      "Ġenables": 6458,
      "Ġissuing": 6459,
      "Ġextinguish": 6460,
      "Ġantib": 6461,
      "Ġrepresentatives": 6462,
      "Ġconfidence": 6463,
      "Ġsurv": 6464,
      "USIN": 6465,
      "ĠEnterpr": 6466,
      "Ġsanctions": 6467,
      "CP": 6468,
      "Long": 6469,
      "Serv": 6470,
      "agr": 6471,
      "dollars": 6472,
      "pay": 6473,
      "wood": 6474,
      "ways": 6475,
      "Ġav": 6476,
      "alone": 6477,
      "Ġanim": 6478,
      "orado": 6479,
      "Ġsocial": 6480,
      "Ġfix": 6481,
      "isite": 6482,
      "ilt": 6483,
      "lot": 6484,
      "othe": 6485,
      "Ġgaming": 6486,
      "ĠDo": 6487,
      "ained": 6488,
      "Ġunamortized": 6489,
      "Ġintense": 6490,
      "ĠMon": 6491,
      "ĠMary": 6492,
      "artered": 6493,
      "uming": 6494,
      "ĠId": 6495,
      "ĠGood": 6496,
      "lected": 6497,
      "ourse": 6498,
      "ongress": 6499,
      "airs": 6500,
      "Ġnoncontrolling": 6501,
      "Ġretire": 6502,
      "Ġ85": 6503,
      "exp": 6504,
      "ĠReform": 6505,
      "Ġcomputing": 6506,
      "Integrated": 6507,
      "Ġtrusts": 6508,
      "Ġlisting": 6509,
      "Ġtherapies": 6510,
      "Ġimmediate": 6511,
      "ĠSecond": 6512,
      "Ġintroduced": 6513,
      "ĠRegulatory": 6514,
      "secutive": 6515,
      "Ġresidual": 6516,
      "Ġprocure": 6517,
      "Ġerrors": 6518,
      "USINESS": 6519,
      "Dr": 6520,
      "aren": 6521,
      "amental": 6522,
      "eys": 6523,
      "eals": 6524,
      "ony": 6525,
      "atories": 6526,
      "ench": 6527,
      "ĠCR": 6528,
      "ution": 6529,
      "Ġonce": 6530,
      "ĠDav": 6531,
      "action": 6532,
      "ĠPB": 6533,
      "osing": 6534,
      "ĠEffective": 6535,
      "ips": 6536,
      "ĠTreasurer": 6537,
      "Ġcharter": 6538,
      "acing": 6539,
      "temporary": 6540,
      "Ġcompeting": 6541,
      "Ġmanufactures": 6542,
      "Ġdisch": 6543,
      "ĠReports": 6544,
      "Ġsoon": 6545,
      "Ġrestrictive": 6546,
      "Ġindicators": 6547,
      "Ġportfolios": 6548,
      "Ġcollections": 6549,
      "Ġcalculate": 6550,
      "Ġprivately": 6551,
      "Ġmaxim": 6552,
      "Ġinsurers": 6553,
      "Ġcommodities": 6554,
      "ĠBenefits": 6555,
      "Ġdealer": 6556,
      "Ġsubscription": 6557,
      "Ġdeficiencies": 6558,
      "Ġpatterns": 6559,
      "Ġautomatically": 6560,
      "Ġdisplay": 6561,
      "ĠAfric": 6562,
      "By": 6563,
      "Employee": 6564,
      "OG": 6565,
      "rical": 6566,
      "Ġir": 6567,
      "Ġï»¿": 6568,
      "onal": 6569,
      "atural": 6570,
      "Ġmov": 6571,
      "stream": 6572,
      "vey": 6573,
      "Ġ2023": 6574,
      "Ġconsecutive": 6575,
      "Ġ$(": 6576,
      "Ġresource": 6577,
      "ĠPost": 6578,
      "ĠPART": 6579,
      "ĠMont": 6580,
      "ĠOut": 6581,
      "ogen": 6582,
      "ĠWork": 6583,
      "outh": 6584,
      "Ġexistence": 6585,
      "FASB": 6586,
      "Ġmanager": 6587,
      "Ġcommunicated": 6588,
      "Ġsubmit": 6589,
      "Ġintroduction": 6590,
      "Ġelectricity": 6591,
      "downs": 6592,
      "Ġefficiencies": 6593,
      "ULTS": 6594,
      "Ġdepartment": 6595,
      "Impairment": 6596,
      "ĠMichael": 6597,
      "anticipated": 6598,
      "ĠArrangements": 6599,
      "ĠMATTERS": 6600,
      "ĠRelationships": 6601,
      "53": 6602,
      "72": 6603,
      "ATE": 6604,
      "app": 6605,
      "certain": 6606,
      "ched": 6607,
      "rics": 6608,
      "itary": 6609,
      "Ġinsp": 6610,
      "Ġreorganization": 6611,
      "cell": 6612,
      "iesel": 6613,
      "ĠNe": 6614,
      "Ġsharing": 6615,
      "aph": 6616,
      "ĠLine": 6617,
      "Ġwast": 6618,
      "2013": 6619,
      "Ġqualifying": 6620,
      "recurring": 6621,
      "ontinu": 6622,
      "Ġproceeding": 6623,
      "Ġrecoveries": 6624,
      "Ġallocations": 6625,
      "Ġexaminations": 6626,
      "EMENTS": 6627,
      "Ġattacks": 6628,
      "Ġbreak": 6629,
      "otherap": 6630,
      "Ġ606": 6631,
      "ITION": 6632,
      "ĠEntergy": 6633,
      "Ġsteps": 6634,
      "Ġdisputes": 6635,
      "ĠLouisiana": 6636,
      "Ġsatellite": 6637,
      "PP": 6638,
      "UD": 6639,
      "best": 6640,
      "benefit": 6641,
      "def": 6642,
      "lines": 6643,
      "mat": 6644,
      "yc": 6645,
      "Ġtar": 6646,
      "Ġsm": 6647,
      "Ġfif": 6648,
      "Ġwar": 6649,
      "rove": 6650,
      "ull": 6651,
      "Ġexpiring": 6652,
      "ĠDel": 6653,
      "ĠOil": 6654,
      "Ġproductivity": 6655,
      "Ġrequisite": 6656,
      "Ġdeficit": 6657,
      "ĠINV": 6658,
      "Ġgeneric": 6659,
      "Ġconducting": 6660,
      "Ġkeep": 6661,
      "Ġcomputation": 6662,
      "Ġconfirm": 6663,
      "Ġseeks": 6664,
      "ĠInstitute": 6665,
      "Ġcards": 6666,
      "Ġtelecomm": 6667,
      "SION": 6668,
      "ĠSupply": 6669,
      "Results": 6670,
      "ĠCertification": 6671,
      "Ġredeemable": 6672,
      "Currently": 6673,
      "Ġadministered": 6674,
      "ĠREPORT": 6675,
      "ricultural": 6676,
      "Both": 6677,
      "PPL": 6678,
      "gia": 6679,
      "Ġ.": 6680,
      "orb": 6681,
      "Ġelement": 6682,
      "imes": 6683,
      "ĠSk": 6684,
      "ĠSIGN": 6685,
      "ĠSettlement": 6686,
      "ĠAward": 6687,
      "Ġweight": 6688,
      "Ġgiving": 6689,
      "ĠFuture": 6690,
      "Ġrig": 6691,
      "ervation": 6692,
      "ape": 6693,
      "Ġclimate": 6694,
      "ught": 6695,
      "asters": 6696,
      "Ġ820": 6697,
      "Ġallowing": 6698,
      "Ġ65": 6699,
      "Ġsubstances": 6700,
      "cludes": 6701,
      "Ġsurplus": 6702,
      "ĠFrance": 6703,
      "ĠManufacturing": 6704,
      "ATURES": 6705,
      "................................": 6706,
      "Ġtelevision": 6707,
      "ĠTransaction": 6708,
      "ĠElectron": 6709,
      "ARKET": 6710,
      "BRL": 6711,
      "Ġretrospective": 6712,
      "Ġquickly": 6713,
      "ulletin": 6714,
      "Fiscal": 6715,
      "OT": 6716,
      "Selling": 6717,
      "UP": 6718,
      "hing": 6719,
      "mm": 6720,
      "making": 6721,
      "Ġrol": 6722,
      "Ġcloud": 6723,
      "ingent": 6724,
      "ĠCle": 6725,
      "ola": 6726,
      "ulatory": 6727,
      "Ġconven": 6728,
      "Ġhire": 6729,
      "ĠPN": 6730,
      "osis": 6731,
      "ĠMerc": 6732,
      "ĠRock": 6733,
      "ĠNort": 6734,
      "ĠEN": 6735,
      "ĠOW": 6736,
      "Ġusually": 6737,
      "Ġrepayments": 6738,
      "ĠSteel": 6739,
      "ĠLa": 6740,
      "ĠTherap": 6741,
      "Ġobserv": 6742,
      "Ġterminal": 6743,
      "ourage": 6744,
      "istributed": 6745,
      "Ġlimiting": 6746,
      "Ġphase": 6747,
      "Ġconstant": 6748,
      "ĠOFFIC": 6749,
      "Ġdrive": 6750,
      "Ġattest": 6751,
      "Ġdeduction": 6752,
      "Consequently": 6753,
      "Ġinstalled": 6754,
      "Ġfurniture": 6755,
      "Ġskilled": 6756,
      "ĠIndustries": 6757,
      "ĠDesign": 6758,
      "ENSATION": 6759,
      "Ġmatching": 6760,
      "Ġinterruption": 6761,
      "Ġupdated": 6762,
      "ĠOpinion": 6763,
      "Ġvoluntary": 6764,
      "known": 6765,
      "Credit": 6766,
      "Consolidated": 6767,
      "Diluted": 6768,
      "Ms": 6769,
      "Or": 6770,
      "Off": 6771,
      "cance": 6772,
      "lf": 6773,
      "lable": 6774,
      "Ġsch": 6775,
      "Ġtoward": 6776,
      "Ġder": 6777,
      "star": 6778,
      "ĠSCHED": 6779,
      "ĠDocu": 6780,
      "Ġuns": 6781,
      "oung": 6782,
      "odies": 6783,
      "ĠBulletin": 6784,
      "ĠLitigation": 6785,
      "Ġtaxing": 6786,
      "owers": 6787,
      "ĠGrant": 6788,
      "veloped": 6789,
      "ĠIncorporation": 6790,
      "ĠHed": 6791,
      "Ġcontracted": 6792,
      "rowth": 6793,
      "2016": 6794,
      "ĠWisconsin": 6795,
      "Ġproperly": 6796,
      "argo": 6797,
      "Ġdisposed": 6798,
      "Ġcollectability": 6799,
      "Ġhereby": 6800,
      "Ġanticipates": 6801,
      "Ġindependently": 6802,
      "Ġretaining": 6803,
      "URE": 6804,
      "ĠFacilities": 6805,
      "Ġstructures": 6806,
      "Ġalternatives": 6807,
      "Ġinnovative": 6808,
      "Ġremoval": 6809,
      "Ġcycles": 6810,
      "Ġthereunto": 6811,
      "Ġcontamination": 6812,
      "âĢ¦âĢ¦": 6813,
      "Ġextinguishment": 6814,
      "Critical": 6815,
      "IG": 6816,
      "Legal": 6817,
      "bank": 6818,
      "effect": 6819,
      "hio": 6820,
      "ik": 6821,
      "ma": 6822,
      "right": 6823,
      "well": 6824,
      "Ġtissue": 6825,
      "erly": 6826,
      "iting": 6827,
      "Ġsem": 6828,
      "stand": 6829,
      "ĠColl": 6830,
      "Ġled": 6831,
      "Ġnever": 6832,
      "Ġnuclear": 6833,
      "uling": 6834,
      "anche": 6835,
      "Ġcoup": 6836,
      "ocol": 6837,
      "ĠEU": 6838,
      "ĠEr": 6839,
      "ĠEND": 6840,
      "Ġrepatri": 6841,
      "Ġwilling": 6842,
      "ĠThese": 6843,
      "Ġ1933": 6844,
      "Ġenab": 6845,
      "Ġevolving": 6846,
      "ĠExhibits": 6847,
      "Ġ46": 6848,
      "letion": 6849,
      "Ġinternally": 6850,
      "ĠTrade": 6851,
      "Ġwarranties": 6852,
      "Ġconstitut": 6853,
      "Ġrole": 6854,
      "ĠSECUR": 6855,
      "Ġprobability": 6856,
      "Ġpenalty": 6857,
      "ĠLeases": 6858,
      "Ġrequested": 6859,
      "Ġcapt": 6860,
      "ĠCOMPENSATION": 6861,
      "ĠXBRL": 6862,
      "ĠMinnesota": 6863,
      "Ġcatastrop": 6864,
      "ĠTRANS": 6865,
      "Ġchoose": 6866,
      "Ġdepreciated": 6867,
      "Ġcheck": 6868,
      "ĠOWNERS": 6869,
      "03": 6870,
      "CL": 6871,
      "Employees": 6872,
      "WS": 6873,
      "financial": 6874,
      "me": 6875,
      "ux": 6876,
      "wo": 6877,
      "Ġinsu": 6878,
      "Ġpetroleum": 6879,
      "Ġsolid": 6880,
      "Ġslight": 6881,
      "Ġfalse": 6882,
      "Ġreform": 6883,
      "Ġdi": 6884,
      "ĠCA": 6885,
      "ĠCASH": 6886,
      "oted": 6887,
      "Ġdeem": 6888,
      "ĠDom": 6889,
      "ĠPar": 6890,
      "ĠMain": 6891,
      "Ġsubcontract": 6892,
      "erex": 6893,
      "Ġcommonly": 6894,
      "Ġnone": 6895,
      "Ġdoing": 6896,
      "Ġ43": 6897,
      "Ġthereon": 6898,
      "oples": 6899,
      "Ġfundamental": 6900,
      "Ġdesigns": 6901,
      "Ġdivided": 6902,
      "ĠAnge": 6903,
      "Ġherewith": 6904,
      "Ġutilizes": 6905,
      "ĠPrivate": 6906,
      "Ġcollaborations": 6907,
      "Ġcovenant": 6908,
      "Ġselection": 6909,
      "Ġsubmission": 6910,
      "Ġadvisors": 6911,
      "Ġdemonstrate": 6912,
      "Ġmeaningful": 6913,
      "likely": 6914,
      "agraph": 6915,
      "bestos": 6916,
      "54": 6917,
      "Med": 6918,
      "Securities": 6919,
      "Summary": 6920,
      "oice": 6921,
      "ting": 6922,
      "Ġcable": 6923,
      "Ġpoly": 6924,
      "issu": 6925,
      "Ġdose": 6926,
      "astern": 6927,
      "ĠCongress": 6928,
      "olete": 6929,
      "idents": 6930,
      "Ġincident": 6931,
      "Ġgather": 6932,
      "Ġvacc": 6933,
      "ĠPayment": 6934,
      "isting": 6935,
      "ollowing": 6936,
      "ĠHigh": 6937,
      "ĠExt": 6938,
      "Ġrecording": 6939,
      "Ġsought": 6940,
      "Ġpriority": 6941,
      "ĠYEAR": 6942,
      "Ġauditors": 6943,
      "olute": 6944,
      "Ġcollective": 6945,
      "Ġpenet": 6946,
      "Ġinternationally": 6947,
      "Ġspecialized": 6948,
      "Ġlowest": 6949,
      "Ġstatute": 6950,
      "Ġrenewable": 6951,
      "Ġtraffic": 6952,
      "losses": 6953,
      "inding": 6954,
      "ĠPolicy": 6955,
      "Ġenhancements": 6956,
      "Ġconcentrations": 6957,
      "Ġpromotion": 6958,
      "ĠRoyalty": 6959,
      "Ġfinanced": 6960,
      "Ġattorneys": 6961,
      "Ġinspection": 6962,
      "52": 6963,
      "COR": 6964,
      "GE": 6965,
      "Security": 6966,
      "be": 6967,
      "inct": 6968,
      "Ġoversight": 6969,
      "Ġside": 6970,
      "Ġways": 6971,
      "unity": 6972,
      "Ġ2025": 6973,
      "Ġconclus": 6974,
      "ĠSale": 6975,
      "Ġsuit": 6976,
      "ĠDerivative": 6977,
      "performance": 6978,
      "ĠPresentation": 6979,
      "ĠOhio": 6980,
      "Ġappearing": 6981,
      "ĠBUSINESS": 6982,
      "amed": 6983,
      "liances": 6984,
      "Ġdecide": 6985,
      "Ġpath": 6986,
      "Ġremote": 6987,
      "ĠPlant": 6988,
      "ĠCompared": 6989,
      "arma": 6990,
      "obs": 6991,
      "Exhibits": 6992,
      "ATIONAL": 6993,
      "Ġcontinuous": 6994,
      "Refer": 6995,
      "ograph": 6996,
      "ĠManaging": 6997,
      "Ġphysician": 6998,
      "Ġfrequency": 6999,
      "Ġdiscretionary": 7000,
      "ĠIndustry": 7001,
      "Ġsections": 7002,
      "Ġfinancings": 7003,
      "Ġcompensatory": 7004,
      "Ġhours": 7005,
      "ĠMeasurements": 7006,
      "Ġobsolete": 7007,
      "Ġenrollment": 7008,
      "Ġminority": 7009,
      "Ġhydro": 7010,
      "stantially": 7011,
      "Ġlegislative": 7012,
      "enchmark": 7013,
      "AX": 7014,
      "FS": 7015,
      "PRO": 7016,
      "Similar": 7017,
      "UT": 7018,
      "alt": 7019,
      "Ġsour": 7020,
      "Ġfire": 7021,
      "Ġdil": 7022,
      "Ġthough": 7023,
      "Ġunanticipated": 7024,
      "ĠPosition": 7025,
      "Ġattain": 7026,
      "ĠEPS": 7027,
      "ĠBar": 7028,
      "formerly": 7029,
      "through": 7030,
      "Ġcontact": 7031,
      "income": 7032,
      "Ġ1991": 7033,
      "pricing": 7034,
      "TATIVE": 7035,
      "oney": 7036,
      "Ġfails": 7037,
      "142": 7038,
      "Ġconsumption": 7039,
      "ĠMedia": 7040,
      "ediate": 7041,
      "Ġsurface": 7042,
      "service": 7043,
      "Ġexclude": 7044,
      "Ġmilitary": 7045,
      "ĠLiquidity": 7046,
      "Ġdivert": 7047,
      "ĠOwners": 7048,
      "Ġdiversified": 7049,
      "Ġelectronically": 7050,
      "Ġforecasts": 7051,
      "Ġadvantages": 7052,
      "ĠColorado": 7053,
      "Ġminimal": 7054,
      "Ġsector": 7055,
      "Investments": 7056,
      "ĠRESULTS": 7057,
      "Ġrebates": 7058,
      "Ġvirt": 7059,
      "Ġpledged": 7060,
      "ĠCounsel": 7061,
      "Ġhypothe": 7062,
      "Ġfabric": 7063,
      "Ġavoid": 7064,
      "ĠMaryland": 7065,
      "ĠENDED": 7066,
      "BI": 7067,
      "Custom": 7068,
      "Federal": 7069,
      "Out": 7070,
      "VIC": 7071,
      "ches": 7072,
      "des": 7073,
      "iate": 7074,
      "yer": 7075,
      "inning": 7076,
      "Ġfiber": 7077,
      "Ġmail": 7078,
      "Ġforced": 7079,
      "Ġconcess": 7080,
      "ider": 7081,
      "usion": 7082,
      "Ġoral": 7083,
      "quired": 7084,
      "abil": 7085,
      "ode": 7086,
      "ĠRISK": 7087,
      "ĠOTHER": 7088,
      "ĠBrit": 7089,
      "Ġtruck": 7090,
      "sub": 7091,
      "Ġenfor": 7092,
      "Ġenters": 7093,
      "Ġinterf": 7094,
      "Ġrefinance": 7095,
      "Ġ1990": 7096,
      "Ġdirected": 7097,
      "Ġjud": 7098,
      "ĠAccountants": 7099,
      "Ġoffsetting": 7100,
      "Ġcontaining": 7101,
      "ĠGeneration": 7102,
      "Ġcomparing": 7103,
      "ĠPartner": 7104,
      "Ġcollaborative": 7105,
      "ĠOrder": 7106,
      "Ġreplaced": 7107,
      "Ġundistributed": 7108,
      "Ġchallenge": 7109,
      "Ġabsolute": 7110,
      "Ġsuspended": 7111,
      "ĠCustomers": 7112,
      "ĠGeorgia": 7113,
      "ĠOFFICERS": 7114,
      "Ġinsufficient": 7115,
      "375": 7116,
      "92": 7117,
      "pet": 7118,
      "Ġours": 7119,
      "ĠSP": 7120,
      "ĠDE": 7121,
      "ĠFERC": 7122,
      "Ġunqualified": 7123,
      "Ġadj": 7124,
      "Ġalign": 7125,
      "ĠESP": 7126,
      "ĠStat": 7127,
      "ĠLI": 7128,
      "ĠJames": 7129,
      "Ġliens": 7130,
      "Ġentry": 7131,
      "Ġnovel": 7132,
      "ĠWell": 7133,
      "Ġ53": 7134,
      "Ġcarb": 7135,
      "Ġdisag": 7136,
      "Ġpresently": 7137,
      "Ġsimpl": 7138,
      "ĠSTATEMENT": 7139,
      "Ġallocate": 7140,
      "Ġafford": 7141,
      "Ġestablishment": 7142,
      "Ġreliable": 7143,
      "ĠOffering": 7144,
      "Ġpeer": 7145,
      "Ġdistinct": 7146,
      "Costs": 7147,
      "Ġlaunch": 7148,
      "Ġcancellation": 7149,
      "âĢ¬âĢ¬âĢ¬âĢ¬": 7150,
      "Ġclearance": 7151,
      "Ġreversal": 7152,
      "Ġcompounds": 7153,
      "Ġbrokers": 7154,
      "ĠINTERN": 7155,
      "Ġhypothetical": 7156,
      "LEC": 7157,
      "oy": 7158,
      "ts": 7159,
      "Ġtit": 7160,
      "insurance": 7161,
      "Ġinhibit": 7162,
      "oms": 7163,
      "Ġmine": 7164,
      "Ġdiss": 7165,
      "ĠCas": 7166,
      "Ġ2024": 7167,
      "ulner": 7168,
      "ids": 7169,
      "ĠFIR": 7170,
      "ĠPCAOB": 7171,
      "Ġadapt": 7172,
      "ĠMult": 7173,
      "Ġexplo": 7174,
      "ĠTenn": 7175,
      "Ġagricultural": 7176,
      "Ġmatures": 7177,
      "ĠHaw": 7178,
      "Ġsubjects": 7179,
      "Ġrestruct": 7180,
      "Ġ55": 7181,
      "Ġpercentages": 7182,
      "riting": 7183,
      "Ġreturned": 7184,
      "Ġmeetings": 7185,
      "Ġoccurring": 7186,
      "Ġholdings": 7187,
      "COSO": 7188,
      "ĠInvestor": 7189,
      "ynam": 7190,
      "self": 7191,
      "ĠIsra": 7192,
      "Ġalleg": 7193,
      "Ġinfluenced": 7194,
      "Ġdocumentation": 7195,
      "Ġintroduce": 7196,
      "Ġeducation": 7197,
      "Ġbeneficiary": 7198,
      "ĠTRANSAC": 7199,
      "ĠBritish": 7200,
      "350": 7201,
      "Ret": 7202,
      "gg": 7203,
      "pat": 7204,
      "tt": 7205,
      "Ġtakes": 7206,
      "atic": 7207,
      "Ġcult": 7208,
      "Ġchem": 7209,
      "ality": 7210,
      "omas": 7211,
      "Ġdiesel": 7212,
      "Ġproced": 7213,
      "Ġcond": 7214,
      "ĠAuthorized": 7215,
      "ests": 7216,
      "Included": 7217,
      "Ġvulner": 7218,
      "duc": 7219,
      "Ġresolved": 7220,
      "Ġunrelated": 7221,
      "actions": 7222,
      "ĠPC": 7223,
      "Ġ37": 7224,
      "Ġ39": 7225,
      "ĠMis": 7226,
      "ĠRiver": 7227,
      "arth": 7228,
      "ĠDeb": 7229,
      "ĠEl": 7230,
      "ĠUN": 7231,
      "Ġlost": 7232,
      "arel": 7233,
      "Ġremove": 7234,
      "losing": 7235,
      "Ġmodify": 7236,
      "Ġauditor": 7237,
      "Ġflat": 7238,
      "ĠPronouncements": 7239,
      "developed": 7240,
      "Ġbelieved": 7241,
      "Ġpromote": 7242,
      "Ġimmun": 7243,
      "phan": 7244,
      "Ġrenewed": 7245,
      "ĠPeriod": 7246,
      "Ġraised": 7247,
      "Ġindemnify": 7248,
      "appropri": 7249,
      "Ġfurnish": 7250,
      "ĠColumb": 7251,
      "Ġforfeited": 7252,
      "Ġbears": 7253,
      "ĠEXECUTIVE": 7254,
      "Ġrepairs": 7255,
      "Ġfewer": 7256,
      "Ġsatisfactory": 7257,
      "Ġthereunder": 7258,
      "Ġcasualty": 7259,
      "Ġlogistics": 7260,
      "Ġmergers": 7261,
      "Ġunused": 7262,
      "dealer": 7263,
      "ĠHOLDINGS": 7264,
      "ĠAfrica": 7265,
      "Ġtelecommunications": 7266,
      "board": 7267,
      "rue": 7268,
      "Ġfarm": 7269,
      "urate": 7270,
      "urity": 7271,
      "urances": 7272,
      "Ġmar": 7273,
      "ĠCr": 7274,
      "Ġlot": 7275,
      "Ġasbestos": 7276,
      "ulated": 7277,
      "ĠSG": 7278,
      "ĠSHE": 7279,
      "quire": 7280,
      "ĠAwards": 7281,
      "ĠAppro": 7282,
      "Ġstation": 7283,
      "Ġunknown": 7284,
      "Ġcompares": 7285,
      "osite": 7286,
      "ĠInf": 7287,
      "Ġaccident": 7288,
      "Ġaccrue": 7289,
      "Ġinternet": 7290,
      "Ġspot": 7291,
      "ologies": 7292,
      "Ġnoninterest": 7293,
      "ittle": 7294,
      "Ġearning": 7295,
      "ALYS": 7296,
      "ĠRepublic": 7297,
      "ĠRepresents": 7298,
      "ĠConsult": 7299,
      "Ġ718": 7300,
      "109": 7301,
      "Ġextensions": 7302,
      "Ġeconomies": 7303,
      "Ġreviewing": 7304,
      "Ġidentifying": 7305,
      "ĠIndependence": 7306,
      "Ġemployer": 7307,
      "Ġattributed": 7308,
      "Ġorganic": 7309,
      "Ġseparation": 7310,
      "Ġconsultant": 7311,
      "ĠThird": 7312,
      "Ġdefaults": 7313,
      "ĠValley": 7314,
      "Ġreliance": 7315,
      "Ġchallenging": 7316,
      "Ġsuperior": 7317,
      "Commitments": 7318,
      "Ġcharacterized": 7319,
      "Ġdemonstrated": 7320,
      "Ġinnovation": 7321,
      "ĠRegulations": 7322,
      "Ġsponsor": 7323,
      "Ġhotels": 7324,
      "Restricted": 7325,
      "Notes": 7326,
      "ĠSoftware": 7327,
      "Ġessential": 7328,
      "ĠRichard": 7329,
      "Ġdilig": 7330,
      "Ġallegations": 7331,
      "Control": 7332,
      "DR": 7333,
      "MD": 7334,
      "UE": 7335,
      "bor": 7336,
      "ĠÂ": 7337,
      "Ġinspect": 7338,
      "Ġpages": 7339,
      "Ġdest": 7340,
      "ĠSHAR": 7341,
      "Ġexempt": 7342,
      "ĠPU": 7343,
      "Ġinterv": 7344,
      "ĠMANAGEMENT": 7345,
      "odity": 7346,
      "ademark": 7347,
      "adjusted": 7348,
      "ĠGulf": 7349,
      "Ġindenture": 7350,
      "ĠHar": 7351,
      "ĠVenture": 7352,
      "ĠChange": 7353,
      "ario": 7354,
      "ĠNov": 7355,
      "Ġjunior": 7356,
      "Ġdisasters": 7357,
      "ALANCE": 7358,
      "TIC": 7359,
      "TIES": 7360,
      "Ġmethodologies": 7361,
      "Ġleasehold": 7362,
      "Ġcounsel": 7363,
      "Ġaggregated": 7364,
      "141": 7365,
      "Ġseverity": 7366,
      "Ġcalculating": 7367,
      "ĠEuro": 7368,
      "Ġleadership": 7369,
      "ĠTransport": 7370,
      "Ġdedicated": 7371,
      "Ġopening": 7372,
      "selves": 7373,
      "Ġcyber": 7374,
      "Ġheading": 7375,
      "Ġhomeb": 7376,
      "aneous": 7377,
      "ĠClaims": 7378,
      "Ġfloor": 7379,
      "ĠApplic": 7380,
      "Ġforfeiture": 7381,
      "Ġremoved": 7382,
      "Ġnegotiations": 7383,
      "CONTINUED": 7384,
      "Ġsecuritization": 7385,
      "Ġprohibited": 7386,
      "Ġinclusion": 7387,
      "dilutive": 7388,
      "Ġattestation": 7389,
      "ĠTRANSACTIONS": 7390,
      "Derivative": 7391,
      "Early": 7392,
      "MO": 7393,
      "Man": 7394,
      "NY": 7395,
      "Use": 7396,
      "bre": 7397,
      "uity": 7398,
      "Ġ====": 7399,
      "Ġtend": 7400,
      "inter": 7401,
      "Ġpound": 7402,
      "enty": 7403,
      "Ġemph": 7404,
      "ĠCMS": 7405,
      "ompt": 7406,
      "Ġprop": 7407,
      "Ġstable": 7408,
      "ĠPOLI": 7409,
      "ĠDev": 7410,
      "Ġoperator": 7411,
      "emptions": 7412,
      "erves": 7413,
      "Ġimposition": 7414,
      "Ġpurchasers": 7415,
      "ligence": 7416,
      "Ġinstead": 7417,
      "astic": 7418,
      "ividend": 7419,
      "Ġfiles": 7420,
      "erging": 7421,
      "ĠCompliance": 7422,
      "Ġimproper": 7423,
      "class": 7424,
      "Ġcalculations": 7425,
      "Exhibit": 7426,
      "Excluding": 7427,
      "Ġstudents": 7428,
      "Ġpractical": 7429,
      "Ġpremises": 7430,
      "clusive": 7431,
      "Ġopened": 7432,
      "Ġmiles": 7433,
      "Ġcarrier": 7434,
      "Ġcarryforward": 7435,
      "Ġalleging": 7436,
      "Ġcopper": 7437,
      "Ġfunctionality": 7438,
      "compliance": 7439,
      "Ġasserted": 7440,
      "ĠMarkets": 7441,
      "Ġmandatory": 7442,
      "BLIC": 7443,
      "ĠSERVIC": 7444,
      "capitalized": 7445,
      "cancelable": 7446,
      "ALYSIS": 7447,
      "ĠPOLICIES": 7448,
      "83": 7449,
      "84": 7450,
      "Earnings": 7451,
      "Following": 7452,
      "OD": 7453,
      "Us": 7454,
      "Vari": 7455,
      "aut": 7456,
      "arent": 7457,
      "xic": 7458,
      "Ġtons": 7459,
      "atch": 7460,
      "Ġpain": 7461,
      "Ġbur": 7462,
      "Ġbarg": 7463,
      "ĠCL": 7464,
      "Ġprohibits": 7465,
      "Ġincorpor": 7466,
      "Ġinterm": 7467,
      "Ġassurances": 7468,
      "Ġcomplying": 7469,
      "ĠBel": 7470,
      "ĠTable": 7471,
      "Ġcontem": 7472,
      "such": 7473,
      "ows": 7474,
      "ĠIB": 7475,
      "Ġissuers": 7476,
      "Ġ49": 7477,
      "Ġaffects": 7478,
      "Ġ150": 7479,
      "ECO": 7480,
      "Ġelectrical": 7481,
      "Ġpublicity": 7482,
      "ertil": 7483,
      "ĠConduct": 7484,
      "Ġprotocol": 7485,
      "ĠEquival": 7486,
      "Ġsurround": 7487,
      "Ġdispose": 7488,
      "ĠFrank": 7489,
      "Ġdepository": 7490,
      "Ġprospectively": 7491,
      "Ġcausing": 7492,
      "Ġdiverse": 7493,
      "Shares": 7494,
      "Among": 7495,
      "MMARY": 7496,
      "Ġmerchant": 7497,
      "approximately": 7498,
      "ĠRetail": 7499,
      "ĠAcquisitions": 7500,
      "Ġabsence": 7501,
      "Assets": 7502,
      "Ġplaintiff": 7503,
      "ĠTele": 7504,
      "Ġdefects": 7505,
      "ĠReceivable": 7506,
      "Ġschool": 7507,
      "Ġcarbon": 7508,
      "07": 7509,
      "count": 7510,
      "ding": 7511,
      "eu": 7512,
      "fit": 7513,
      "ki": 7514,
      "sites": 7515,
      "eng": 7516,
      "alid": 7517,
      "isms": 7518,
      "Ġblock": 7519,
      "icon": 7520,
      "step": 7521,
      "ĠCH": 7522,
      "ĠCP": 7523,
      "Ġconvent": 7524,
      "ided": 7525,
      "ĠSB": 7526,
      "ĠSup": 7527,
      "Ġextract": 7528,
      "ĠMiss": 7529,
      "ĠRico": 7530,
      "ĠEmployees": 7531,
      "ustod": 7532,
      "ĠLos": 7533,
      "ister": 7534,
      "ĠJoint": 7535,
      "ouses": 7536,
      "Ġnonaccrual": 7537,
      "eller": 7538,
      "ops": 7539,
      "Ġevaluations": 7540,
      "yses": 7541,
      "Ġassesses": 7542,
      "forward": 7543,
      "ITAL": 7544,
      "ĠYoung": 7545,
      "Ġanalyses": 7546,
      "Ġaffirm": 7547,
      "ĠArticles": 7548,
      "Ġ404": 7549,
      "Ġclearing": 7550,
      "Amortization": 7551,
      "ĠCentral": 7552,
      "Ġdenied": 7553,
      "Ġaccuracy": 7554,
      "Ġwidely": 7555,
      "ĠIssuer": 7556,
      "Ġwaiver": 7557,
      "Ġdeficiency": 7558,
      "ĠPeoples": 7559,
      "ĠANALYSIS": 7560,
      "Ġformula": 7561,
      "Ġreimbursed": 7562,
      "ĠDeposit": 7563,
      "ĠINDEPENDENT": 7564,
      "ĠDocument": 7565,
      "ĠAngeles": 7566,
      "06": 7567,
      "Ar": 7568,
      "App": 7569,
      "Govern": 7570,
      "yle": 7571,
      "ycl": 7572,
      "Ġauction": 7573,
      "Ġtal": 7574,
      "Ġopp": 7575,
      "erosp": 7576,
      "eded": 7577,
      "Ġsolic": 7578,
      "Ġprosecut": 7579,
      "Ġunaudited": 7580,
      "ĠPayments": 7581,
      "Ġpriced": 7582,
      "umin": 7583,
      "Ġinvalid": 7584,
      "ĠIS": 7585,
      "efore": 7586,
      "Ġpays": 7587,
      "Ġpretax": 7588,
      "Ġclin": 7589,
      "aker": 7590,
      "issipp": 7591,
      "Ġ842": 7592,
      "Ġprinciple": 7593,
      "Ġassumes": 7594,
      "===": 7595,
      "vertising": 7596,
      "Ġlicens": 7597,
      "Ġdesignation": 7598,
      "ĠWeb": 7599,
      "157": 7600,
      "ricing": 7601,
      "ĠGross": 7602,
      "Ġcreation": 7603,
      "State": 7604,
      "Ġmonitors": 7605,
      "affiliated": 7606,
      "ickback": 7607,
      "Ġelimination": 7608,
      "acco": 7609,
      "Ġinitiate": 7610,
      "Should": 7611,
      "Ġelectronics": 7612,
      "Ġaccelerate": 7613,
      "Ġbuyer": 7614,
      "Environmental": 7615,
      "Ġencounter": 7616,
      "souri": 7617,
      "Ġinterruptions": 7618,
      "Ġassembly": 7619,
      "Ġterrorism": 7620,
      "IRECTORS": 7621,
      "ĠCONDITION": 7622,
      "ĠOmn": 7623,
      "ĠDavid": 7624,
      "Ġmaximize": 7625,
      "otherapy": 7626,
      "erospace": 7627,
      "94": 7628,
      "Bal": 7629,
      "Dividends": 7630,
      "RI": 7631,
      "Rel": 7632,
      "VER": 7633,
      "iary": 7634,
      "long": 7635,
      "ris": 7636,
      "yers": 7637,
      "inions": 7638,
      "Ġore": 7639,
      "anium": 7640,
      "ioned": 7641,
      "Ġpetition": 7642,
      "Ġmole": 7643,
      "Ġbenchmark": 7644,
      "iche": 7645,
      "stock": 7646,
      "Ġnut": 7647,
      "Ġproposals": 7648,
      "look": 7649,
      "Ġstay": 7650,
      "Ġstages": 7651,
      "igan": 7652,
      "ĠPu": 7653,
      "Ġpronouncements": 7654,
      "ĠMo": 7655,
      "ĠMart": 7656,
      "ĠNatural": 7657,
      "anded": 7658,
      "ĠBased": 7659,
      "Ġagree": 7660,
      "ĠUs": 7661,
      "Ġplay": 7662,
      "porarily": 7663,
      "Ġcapability": 7664,
      "Ġupfront": 7665,
      "Ġretired": 7666,
      "grade": 7667,
      "EST": 7668,
      "Ġart": 7669,
      "ARs": 7670,
      "ressed": 7671,
      "Ġrepresentations": 7672,
      "ĠIndenture": 7673,
      "aints": 7674,
      "Ġtrustee": 7675,
      "USSION": 7676,
      "TRANT": 7677,
      "Ġinherently": 7678,
      "Ġbiotechnology": 7679,
      "Ġexclusivity": 7680,
      "Ġrequests": 7681,
      "SIGN": 7682,
      "ĠHealthcare": 7683,
      "process": 7684,
      "employment": 7685,
      "Ġbonuses": 7686,
      "Ġsuspension": 7687,
      "ĠBasic": 7688,
      "ĠDISCUSSION": 7689,
      "ĠBiotechnology": 7690,
      "Index": 7691,
      "ĠREGISTRANT": 7692,
      "ĠDepreciation": 7693,
      "ĠINVES": 7694,
      "ĠMissouri": 7695,
      "Ġsurrounding": 7696,
      "ĠSupreme": 7697,
      "AF": 7698,
      "First": 7699,
      "br": 7700,
      "Ġtank": 7701,
      "rep": 7702,
      "Ġcom": 7703,
      "Ġcut": 7704,
      "Ġpump": 7705,
      "ĠCirc": 7706,
      "Ġlittle": 7707,
      "ĠSpr": 7708,
      "ĠAT": 7709,
      "ĠFLO": 7710,
      "Ġunsu": 7711,
      "ĠMW": 7712,
      "ĠBase": 7713,
      "eginning": 7714,
      "ords": 7715,
      "Ġpurport": 7716,
      "Ġcertainty": 7717,
      "ĠHo": 7718,
      "rown": 7719,
      "Ġperforms": 7720,
      "Ġ42": 7721,
      "ĠProcess": 7722,
      "excluding": 7723,
      "Ġmetals": 7724,
      "ĠAmounts": 7725,
      "conomic": 7726,
      "Ġauthoritative": 7727,
      "ĠConnect": 7728,
      "ĠAmericas": 7729,
      "Ġrevisions": 7730,
      "EDINGS": 7731,
      "Ġtreatments": 7732,
      "Ġattributes": 7733,
      "Ġspecifications": 7734,
      "ĠGenerex": 7735,
      "Ġglobally": 7736,
      "ĠAtt": 7737,
      "ĠAtlant": 7738,
      "Ġdealership": 7739,
      "ĠPrograms": 7740,
      "ĠWestern": 7741,
      "Ġstaffing": 7742,
      "Ġindefinitely": 7743,
      "Investment": 7744,
      "ĠPROCE": 7745,
      "Ġdeterioration": 7746,
      "Ġbarrel": 7747,
      "Ġcommencement": 7748,
      "ĠSmith": 7749,
      "expense": 7750,
      "ĠHedging": 7751,
      "ĠMississipp": 7752,
      "82": 7753,
      "87": 7754,
      "93": 7755,
      "AA": 7756,
      "Audit": 7757,
      "EU": 7758,
      "Factors": 7759,
      "LY": 7760,
      "burg": 7761,
      "core": 7762,
      "nst": 7763,
      "pe": 7764,
      "rest": 7765,
      "anel": 7766,
      "itro": 7767,
      "itch": 7768,
      "ented": 7769,
      "Ġmus": 7770,
      "Ġmaster": 7771,
      "Ġeas": 7772,
      "ĠSim": 7773,
      "Ġstability": 7774,
      "ĠDollar": 7775,
      "Ġvaries": 7776,
      "hers": 7777,
      "Ġresolve": 7778,
      "Ġrated": 7779,
      "Ġalter": 7780,
      "ĠBAN": 7781,
      "Ġtrail": 7782,
      "ĠJose": 7783,
      "Ġlever": 7784,
      "Ġfollowed": 7785,
      "Ġmeets": 7786,
      "ĠValuation": 7787,
      "Ġgranting": 7788,
      "Ġarbit": 7789,
      "Ġstringent": 7790,
      "ccessful": 7791,
      "rete": 7792,
      "registered": 7793,
      "erto": 7794,
      "locks": 7795,
      "Ġsearch": 7796,
      "Ġbuilt": 7797,
      "Ġshorter": 7798,
      "Ġprescription": 7799,
      "ĠProm": 7800,
      "ĠPract": 7801,
      "Ġexcludes": 7802,
      "ĠBlue": 7803,
      "Ġparcel": 7804,
      "Ġbranded": 7805,
      "Ġcalls": 7806,
      "quality": 7807,
      "Substantially": 7808,
      "Ġfinding": 7809,
      "ĠWhite": 7810,
      "Properties": 7811,
      "ĠPurchases": 7812,
      "ĠVIEs": 7813,
      "Ġappears": 7814,
      "Ġforeclosure": 7815,
      "ĠEntities": 7816,
      "Ġanimal": 7817,
      "onald": 7818,
      "ĠTherapeut": 7819,
      "Ġslightly": 7820,
      "ĠSERVICES": 7821,
      "ĠEquivalents": 7822,
      "ĠPuerto": 7823,
      "ĠPROCEEDINGS": 7824,
      "Ag": 7825,
      "CB": 7826,
      "FO": 7827,
      "HS": 7828,
      "Str": 7829,
      "brid": 7830,
      "ray": 7831,
      "ta": 7832,
      "ti": 7833,
      "âĹı": 7834,
      "rev": 7835,
      "onic": 7836,
      "atab": 7837,
      "Ġsam": 7838,
      "ara": 7839,
      "Ġtow": 7840,
      "Ġbio": 7841,
      "Ġprove": 7842,
      "Ġconcept": 7843,
      "iduc": 7844,
      "Ġexc": 7845,
      "Ġextra": 7846,
      "load": 7847,
      "Ġcooper": 7848,
      "ĠFl": 7849,
      "Ġresign": 7850,
      "Ġexped": 7851,
      "ommod": 7852,
      "ibly": 7853,
      "ĠEduc": 7854,
      "ĠBALANCE": 7855,
      "Ġaccredit": 7856,
      "ume": 7857,
      "isco": 7858,
      "ĠGP": 7859,
      "Ġspeed": 7860,
      "ĠCommunity": 7861,
      "Ġ44": 7862,
      "Ġdefines": 7863,
      "ondon": 7864,
      "ĠConsolidation": 7865,
      "wear": 7866,
      "ĠEnd": 7867,
      "Ġexercises": 7868,
      "133": 7869,
      "ĠIntel": 7870,
      "Ġpredom": 7871,
      "Ġreimbursements": 7872,
      "Ġautomobile": 7873,
      "urtail": 7874,
      "Ġreinvested": 7875,
      "approval": 7876,
      "opharmaceutical": 7877,
      "Ġmovements": 7878,
      "ĠAbb": 7879,
      "Ġefficiently": 7880,
      "Ġwareh": 7881,
      "Ġdispute": 7882,
      "Directors": 7883,
      "Ġconflicts": 7884,
      "Ġclarifies": 7885,
      "Ġingredients": 7886,
      "Ġprocurement": 7887,
      "Ġconvenience": 7888,
      "Ġderive": 7889,
      "ĠINTERNATIONAL": 7890,
      "ĠDebentures": 7891,
      "ĠSHARE": 7892,
      "ĠPUBLIC": 7893,
      "ĠMississippi": 7894,
      "86": 7895,
      "875": 7896,
      "EES": 7897,
      "NOL": 7898,
      "tics": 7899,
      "itation": 7900,
      "itect": 7901,
      "Ġpul": 7902,
      "Ġtowards": 7903,
      "Ġmem": 7904,
      "level": 7905,
      "uses": 7906,
      "ĠSavings": 7907,
      "Ġexemption": 7908,
      "Ġhy": 7909,
      "Ġstabil": 7910,
      "ĠDi": 7911,
      "Inventories": 7912,
      "ĠFlow": 7913,
      "ĠPip": 7914,
      "ĠPrior": 7915,
      "berg": 7916,
      "Ġintention": 7917,
      "ĠEITF": 7918,
      "Ġaccommod": 7919,
      "atings": 7920,
      "Ġunderstand": 7921,
      "ĠID": 7922,
      "ache": 7923,
      "Ġquest": 7924,
      "ologic": 7925,
      "Ġdirection": 7926,
      "oston": 7927,
      "ĠProduction": 7928,
      "Ġvariability": 7929,
      "Ġdisability": 7930,
      "ĠSelect": 7931,
      "Ġreduces": 7932,
      "Unless": 7933,
      "Ġfailed": 7934,
      "Ġpermitting": 7935,
      "Ġflu": 7936,
      "Ġactually": 7937,
      "Ġcontinuously": 7938,
      "Intangible": 7939,
      "Ġcarefully": 7940,
      "Ġcontingency": 7941,
      "ographic": 7942,
      "Ġwebsites": 7943,
      "TROL": 7944,
      "Ġchallenged": 7945,
      "Ġinvolvement": 7946,
      "SOP": 7947,
      "Ġunderwriters": 7948,
      "Accounts": 7949,
      "ĠImprove": 7950,
      "IFIC": 7951,
      "Ġescal": 7952,
      "EFI": 7953,
      "Ġpertaining": 7954,
      "ĠMeasurement": 7955,
      "ĠCombinations": 7956,
      "HIBITS": 7957,
      "Ġpursuing": 7958,
      "Ġtumor": 7959,
      "Ġperceived": 7960,
      "ĠNominating": 7961,
      "ĠESPP": 7962,
      "ĠTennessee": 7963,
      "ĠColumbia": 7964,
      "Ed": 7965,
      "ETS": 7966,
      "Pat": 7967,
      "cost": 7968,
      "gu": 7969,
      "opt": 7970,
      "wan": 7971,
      "investment": 7972,
      "itiz": 7973,
      "Ġpresident": 7974,
      "uro": 7975,
      "ascular": 7976,
      "eth": 7977,
      "ĠChemical": 7978,
      "Ġlock": 7979,
      "chitect": 7980,
      "Ġhiring": 7981,
      "ĠDan": 7982,
      "udent": 7983,
      "econom": 7984,
      "ĠMB": 7985,
      "Ġalways": 7986,
      "ĠRO": 7987,
      "ĠBay": 7988,
      "Ġrecip": 7989,
      "Ġimposes": 7990,
      "ĠLetter": 7991,
      "ĠLondon": 7992,
      "ĠGRO": 7993,
      "Ġacting": 7994,
      "Ġgene": 7995,
      "...": 7996,
      "Ġdiscover": 7997,
      "Ġindependence": 7998,
      "ĠHuman": 7999,
      "Ġrefinancing": 8000,
      "Ġspent": 8001,
      "Ġcapitalize": 8002,
      "Ġcreditors": 8003,
      "ĠWIT": 8004,
      "Ġdescrib": 8005,
      "Ġreme": 8006,
      "ĠTrademark": 8007,
      "Ġseller": 8008,
      "Ġscreen": 8009,
      "avor": 8010,
      "Ġenvironments": 8011,
      "Ġprepayments": 8012,
      "Ġdiscussions": 8013,
      "Ġmedium": 8014,
      "Ġshortages": 8015,
      "note": 8016,
      "Ġprescribed": 8017,
      "ĠREL": 8018,
      "Ġexceeding": 8019,
      "Ġaccessories": 8020,
      "Ġ1989": 8021,
      "TERED": 8022,
      "Ġbiom": 8023,
      "arbor": 8024,
      "Ġdiversion": 8025,
      "Ġannounce": 8026,
      "Commercial": 8027,
      "Ġmotor": 8028,
      "Ġsubscri": 8029,
      "ĠOrganization": 8030,
      "ĠSponsor": 8031,
      "Ġenterprises": 8032,
      "value": 8033,
      "ĠAccumulated": 8034,
      "ĠAdvisory": 8035,
      "Ġwithdrawal": 8036,
      "ĠEvaluation": 8037,
      "Ġ-------------": 8038,
      "Despite": 8039,
      "Ġheavily": 8040,
      "Ġpharmac": 8041,
      "Ġcurve": 8042,
      "Ġconstraints": 8043,
      "Ġdischarge": 8044,
      "Ġbargaining": 8045,
      "Ġaffirmative": 8046,
      "120": 8047,
      "91": 8048,
      "CES": 8049,
      "HEN": 8050,
      "MANAGEMENT": 8051,
      "Options": 8052,
      "SB": 8053,
      "SG": 8054,
      "Sever": 8055,
      "che": 8056,
      "disc": 8057,
      "how": 8058,
      "kl": 8059,
      "mal": 8060,
      "Ġ+": 8061,
      "Ġ________________": 8062,
      "heast": 8063,
      "Ġcurtail": 8064,
      "itude": 8065,
      "Ġinform": 8066,
      "Ġfertil": 8067,
      "Ġmass": 8068,
      "Ġbody": 8069,
      "ĠCase": 8070,
      "olver": 8071,
      "ĠSil": 8072,
      "ections": 8073,
      "Ġstrict": 8074,
      "sell": 8075,
      "Ġcovers": 8076,
      "antitative": 8077,
      "ĠNAV": 8078,
      "ĠTAX": 8079,
      "ĠLA": 8080,
      "ĠLegal": 8081,
      "istant": 8082,
      "ĠGl": 8083,
      "Ġadditions": 8084,
      "Ġestimation": 8085,
      "Ġspectrum": 8086,
      "Ġrecognizing": 8087,
      "ĠVol": 8088,
      "ssue": 8089,
      "Ġauto": 8090,
      "weighted": 8091,
      "ĠTrading": 8092,
      "ression": 8093,
      "Ġcompleting": 8094,
      "ĠBanks": 8095,
      "Ġformal": 8096,
      "Ġworked": 8097,
      "Ġprote": 8098,
      "Ġbranches": 8099,
      "Ġengaging": 8100,
      "ĠArg": 8101,
      "Ġcreating": 8102,
      "ĠSUPPL": 8103,
      "Ġunrest": 8104,
      "Ġ----------": 8105,
      "Ġparagraph": 8106,
      "Ġmisappropri": 8107,
      "Common": 8108,
      "Ġaccurate": 8109,
      "PERTIES": 8110,
      "Ġentirely": 8111,
      "Ġsubscrib": 8112,
      "Ġdeferral": 8113,
      "Ġstarting": 8114,
      "Ġmechanisms": 8115,
      "Previously": 8116,
      "Selected": 8117,
      "consuming": 8118,
      "Specifically": 8119,
      "ĠMaterials": 8120,
      "IFICANT": 8121,
      "96": 8122,
      "Debt": 8123,
      "LP": 8124,
      "RG": 8125,
      "aign": 8126,
      "hore": 8127,
      "mer": 8128,
      "rist": 8129,
      "zen": 8130,
      "ano": 8131,
      "Ġreloc": 8132,
      "etic": 8133,
      "ĠCard": 8134,
      "ĠCAP": 8135,
      "imin": 8136,
      "ĠSy": 8137,
      "ĠSal": 8138,
      "Ġsuc": 8139,
      "Ġgreen": 8140,
      "Ġbylaws": 8141,
      "Ġintens": 8142,
      "Ġranges": 8143,
      "Ġprompt": 8144,
      "ĠRad": 8145,
      "Ġshopp": 8146,
      "Ġapparel": 8147,
      "Ġaccretion": 8148,
      "Ġrecession": 8149,
      "jection": 8150,
      "Ġterminates": 8151,
      "ĠHolders": 8152,
      "Ġ47": 8153,
      "Ġdesired": 8154,
      "oody": 8155,
      "Ġfeas": 8156,
      "ARD": 8157,
      "Ġbecoming": 8158,
      "Ġextreme": 8159,
      "Ġassume": 8160,
      "ionally": 8161,
      "Ġprotein": 8162,
      "140": 8163,
      "Ġlicensees": 8164,
      "ĠQUAL": 8165,
      "Ġexpenditure": 8166,
      "Exchange": 8167,
      "Ġintegrity": 8168,
      "Ġpossibly": 8169,
      "Ġdevote": 8170,
      "Ġtemper": 8171,
      "ĠThomas": 8172,
      "Ġcategor": 8173,
      "Ġeligibility": 8174,
      "Ġcycl": 8175,
      "ĠOwner": 8176,
      "ĠRisks": 8177,
      "Ġconsolidate": 8178,
      "Ġacceleration": 8179,
      "Ġconcentrated": 8180,
      "Ġabsorb": 8181,
      "umbers": 8182,
      "ĠSupplemental": 8183,
      "Ġstandby": 8184,
      "ĠParent": 8185,
      "Ġdeploy": 8186,
      "ANGES": 8187,
      "ĠDISCLOSURES": 8188,
      "Beginning": 8189,
      "GMP": 8190,
      "OCI": 8191,
      "TP": 8192,
      "bi": 8193,
      "now": 8194,
      "Ġovers": 8195,
      "onents": 8196,
      "orizon": 8197,
      "Ġpot": 8198,
      "Ġsurren": 8199,
      "Ġfiduc": 8200,
      "Ġtook": 8201,
      "Ġmen": 8202,
      "Ġmac": 8203,
      "Ġlink": 8204,
      "Ġbeverage": 8205,
      "ĠDigital": 8206,
      "Ġ300": 8207,
      "ĠMining": 8208,
      "ibus": 8209,
      "ĠOpt": 8210,
      "umn": 8211,
      "ĠLTI": 8212,
      "isted": 8213,
      "ĠIssue": 8214,
      "Ġmaturing": 8215,
      "Ġeffected": 8216,
      "license": 8217,
      "Ġcapable": 8218,
      "Ġregulate": 8219,
      "Ġentertain": 8220,
      "Ġ51": 8221,
      "Ġassociates": 8222,
      "Ġindicates": 8223,
      "Ġindicator": 8224,
      "Ġconsiderations": 8225,
      "Ġvaluable": 8226,
      "clude": 8227,
      "avior": 8228,
      "Ġendpoint": 8229,
      "Ġinventions": 8230,
      "Ġbroader": 8231,
      "Ġdeclare": 8232,
      "Ġviable": 8233,
      "ĠSubordinated": 8234,
      "Ġ---------": 8235,
      "Ġ-----------": 8236,
      "SIVE": 8237,
      "Ġenactment": 8238,
      "ĠACCOUNT": 8239,
      "Ġceased": 8240,
      "Trust": 8241,
      "ĠINDEX": 8242,
      "Ġemergency": 8243,
      "thanol": 8244,
      "asurement": 8245,
      "Ġlaunched": 8246,
      "Ġspreads": 8247,
      "ĠCOMMON": 8248,
      "ĠProfit": 8249,
      "ĠREGISTERED": 8250,
      "ĠReference": 8251,
      "Ġcampaign": 8252,
      "petual": 8253,
      "Ġprocedure": 8254,
      "ĠTransportation": 8255,
      "uminum": 8256,
      "Balance": 8257,
      "ĠCircuit": 8258,
      "ĠFLOWS": 8259,
      "ĠWITH": 8260,
      "Ġsucceed": 8261,
      "81": 8262,
      "Basis": 8263,
      "Given": 8264,
      "IM": 8265,
      "MENTS": 8266,
      "TY": 8267,
      "Year": 8268,
      "pers": 8269,
      "paid": 8270,
      "sen": 8271,
      "worth": 8272,
      "Ġcrop": 8273,
      "ede": 8274,
      "order": 8275,
      "Ġlif": 8276,
      "Ġorphan": 8277,
      "ĠSBA": 8278,
      "igor": 8279,
      "seen": 8280,
      "ĠFort": 8281,
      "Ġunion": 8282,
      "Ġunfore": 8283,
      "ĠRat": 8284,
      "ĠRen": 8285,
      "ĠBEN": 8286,
      "ĠBoston": 8287,
      "ĠInventories": 8288,
      "ams": 8289,
      "Ġenough": 8290,
      "ĠHel": 8291,
      "Ġ41": 8292,
      "vailability": 8293,
      "ago": 8294,
      "Ġjust": 8295,
      "Ġtwenty": 8296,
      "Ġobtains": 8297,
      "Ġqualification": 8298,
      "Ġformulation": 8299,
      "ĠKore": 8300,
      "ontinue": 8301,
      "Ġtrades": 8302,
      "Ġopinions": 8303,
      "ĠASSE": 8304,
      "aving": 8305,
      "earning": 8306,
      "ildren": 8307,
      "Ġfinite": 8308,
      "Ġcontractually": 8309,
      "Ġcomparative": 8310,
      "ĠController": 8311,
      "Ġ180": 8312,
      "Ġcomprom": 8313,
      "REHEN": 8314,
      "ĠRestructuring": 8315,
      "Ġcertified": 8316,
      "ĠExpress": 8317,
      "Ġautomated": 8318,
      "Ġheadcount": 8319,
      "Ġreinvestment": 8320,
      "Ġcellular": 8321,
      "Ġpassed": 8322,
      "Ġpipelines": 8323,
      "ursing": 8324,
      "ophist": 8325,
      "Ġskills": 8326,
      "Loan": 8327,
      "Ġcorrective": 8328,
      "apter": 8329,
      "Ġmiddle": 8330,
      "Ġmachinery": 8331,
      "Director": 8332,
      "ĠUtilities": 8333,
      "Ġsituations": 8334,
      "Ġassignment": 8335,
      "Ġappraisal": 8336,
      "ĠEngineering": 8337,
      "itzer": 8338,
      "ĠMountain": 8339,
      "ĠNorthern": 8340,
      "Ġgathering": 8341,
      "ĠExtension": 8342,
      "ĠFIRM": 8343,
      "Ġdiligence": 8344,
      "Ġcontempl": 8345,
      "ĠEducation": 8346,
      "ĠGROUP": 8347,
      "REHENSIVE": 8348,
      "AD": 8349,
      "Borrow": 8350,
      "HIP": 8351,
      "RISK": 8352,
      "You": 8353,
      "aii": 8354,
      "bers": 8355,
      "band": 8356,
      "uasive": 8357,
      "Ġtick": 8358,
      "rees": 8359,
      "alog": 8360,
      "Ġsophist": 8361,
      "Ġreins": 8362,
      "inger": 8363,
      "omen": 8364,
      "Ġtoxic": 8365,
      "Ġbatter": 8366,
      "Ġdatab": 8367,
      "ros": 8368,
      "Ġliving": 8369,
      "Ġnation": 8370,
      "olven": 8371,
      "uter": 8372,
      "ĠSant": 8373,
      "Ġhim": 8374,
      "ĠAuthor": 8375,
      "Ġvigor": 8376,
      "herlands": 8377,
      "Ġundeveloped": 8378,
      "ĠPP": 8379,
      "Ġ350": 8380,
      "ĠMa": 8381,
      "ĠMor": 8382,
      "Ġshut": 8383,
      "iple": 8384,
      "ĠTer": 8385,
      "Ġmanages": 8386,
      "ĠGrowth": 8387,
      "istry": 8388,
      "Ġ1940": 8389,
      "Ġoutput": 8390,
      "Ġcontractor": 8391,
      "Ġitself": 8392,
      "ĠCommittees": 8393,
      "ĠCommodity": 8394,
      "ĠVi": 8395,
      "Ġdefending": 8396,
      "Ġvariations": 8397,
      "Ġmetrics": 8398,
      "Ġ95": 8399,
      "Ġexisted": 8400,
      "ĠKong": 8401,
      "Ġscen": 8402,
      "Ġadvice": 8403,
      "ype": 8404,
      "ĠConstruction": 8405,
      "131": 8406,
      "Ġoffshore": 8407,
      "Ġaccruing": 8408,
      "Ġsetting": 8409,
      "Ġprescrib": 8410,
      "Ġengagement": 8411,
      "Ġprovisional": 8412,
      "ĠInvestors": 8413,
      "ĠFranc": 8414,
      "aho": 8415,
      "Ġpackage": 8416,
      "approved": 8417,
      "Ġunfunded": 8418,
      "ĠBrands": 8419,
      "ILL": 8420,
      "ĠIssuance": 8421,
      "Ġproblem": 8422,
      "Ġsectors": 8423,
      "Ġattempts": 8424,
      "Ġfranchisees": 8425,
      "ĠPaul": 8426,
      "ĠSuperior": 8427,
      "OVER": 8428,
      "Ġrecommendations": 8429,
      "Ġstrengthening": 8430,
      "Acquisitions": 8431,
      "Ġcomplementary": 8432,
      "ĠClean": 8433,
      "Similarly": 8434,
      "ycling": 8435,
      "Related": 8436,
      "Ġunsuccessful": 8437,
      "Ġpredominant": 8438,
      "Ġentertainment": 8439,
      "Del": 8440,
      "DIRECTORS": 8441,
      "EE": 8442,
      "GAL": 8443,
      "MR": 8444,
      "Ne": 8445,
      "bl": 8446,
      "go": 8447,
      "ken": 8448,
      "na": 8449,
      "ny": 8450,
      "oir": 8451,
      "rition": 8452,
      "Ġaw": 8453,
      "Ġwage": 8454,
      "Ġmill": 8455,
      "oline": 8456,
      "ĠAv": 8457,
      "Ġstem": 8458,
      "ĠFAC": 8459,
      "Ġresale": 8460,
      "Ġuncon": 8461,
      "Ġnotification": 8462,
      "dering": 8463,
      "ĠLatin": 8464,
      "Ġenrol": 8465,
      "ĠHub": 8466,
      "Ġnonperforming": 8467,
      "Ġinstability": 8468,
      "ĠWal": 8469,
      "Ġ510": 8470,
      "ALS": 8471,
      "102": 8472,
      "Ġ66": 8473,
      "Ġprofile": 8474,
      "OLV": 8475,
      "ĠBanking": 8476,
      "Ġeconomically": 8477,
      "Ġtypical": 8478,
      "ecessor": 8479,
      "Ġrepresentative": 8480,
      "Ġintegrating": 8481,
      "ĠScience": 8482,
      "ĠInstitut": 8483,
      "Ġfuels": 8484,
      "Ġcomplexity": 8485,
      "ĠLiability": 8486,
      "Ġunderwr": 8487,
      "ATIONSHI": 8488,
      "ĠRoad": 8489,
      "Ġsuspend": 8490,
      "commerce": 8491,
      "ĠAssociates": 8492,
      "Regulatory": 8493,
      "Ġsponsors": 8494,
      "ĠSchool": 8495,
      "ĠMichigan": 8496,
      "Ġundertake": 8497,
      "onomy": 8498,
      "ĠNOLs": 8499,
      "ĠSTOCKHOLDERS": 8500,
      "Ġvessels": 8501,
      "defined": 8502,
      "Ġtariffs": 8503,
      "Ġpenetration": 8504,
      "Ġconventional": 8505,
      "SIGNATURES": 8506,
      "ĠTherapeutics": 8507,
      "economic": 8508,
      "ĠRELATIONSHI": 8509,
      "Ġshopping": 8510,
      "ĠLTIP": 8511,
      "ĠRELATIONSHIPS": 8512,
      "450": 8513,
      "AIR": 8514,
      "Cs": 8515,
      "CERTAIN": 8516,
      "Gains": 8517,
      "NN": 8518,
      "Tech": 8519,
      "ULE": 8520,
      "base": 8521,
      "funded": 8522,
      "ham": 8523,
      "most": 8524,
      "ney": 8525,
      "ats": 8526,
      "annual": 8527,
      "Ġclosures": 8528,
      "ĠcGMP": 8529,
      "Ġpowers": 8530,
      "urric": 8531,
      "Ġwriting": 8532,
      "Ġtoler": 8533,
      "roup": 8534,
      "Ġease": 8535,
      "eters": 8536,
      "Ġlay": 8537,
      "omplis": 8538,
      "ĠAverage": 8539,
      "ĠAccess": 8540,
      "Ġsure": 8541,
      "ĠDS": 8542,
      "esting": 8543,
      "Inventory": 8544,
      "resh": 8545,
      "Ġunivers": 8546,
      "Ġperception": 8547,
      "ĠRight": 8548,
      "ĠED": 8549,
      "Ġaccomplis": 8550,
      "Ġrecourse": 8551,
      "ĠTechn": 8552,
      "ĠTai": 8553,
      "Ġimage": 8554,
      "Ġshared": 8555,
      "ĠLT": 8556,
      "Ġtaxation": 8557,
      "Ġlieu": 8558,
      "inees": 8559,
      "Ġtransm": 8560,
      "ĠHong": 8561,
      "Ġpurchaser": 8562,
      "ENCE": 8563,
      "ĠPlace": 8564,
      "Ġdisb": 8565,
      "104": 8566,
      "Ġaudio": 8567,
      "Ġpersuasive": 8568,
      "Once": 8569,
      "160": 8570,
      "earned": 8571,
      "Ġstatist": 8572,
      "Ġpatented": 8573,
      "ĠTaxonomy": 8574,
      "Ġdeclining": 8575,
      "Ġbehavior": 8576,
      "Ġstructured": 8577,
      "Ġbiopharmaceutical": 8578,
      "LEGAL": 8579,
      "ĠCOMPREHENSIVE": 8580,
      "Ġteams": 8581,
      "Ġentirety": 8582,
      "ĠSubsidiary": 8583,
      "ĠDefin": 8584,
      "ĠAbout": 8585,
      "ĠAdvisors": 8586,
      "ĠBroad": 8587,
      "Ġexchanged": 8588,
      "Ġnegotiate": 8589,
      "Ġsituation": 8590,
      "Ġterrorist": 8591,
      "ometimes": 8592,
      "FINANCIAL": 8593,
      "etermined": 8594,
      "ĠSTOCKHOLDER": 8595,
      "Ġ------------------------": 8596,
      "ĠMotor": 8597,
      "ĠElectronics": 8598,
      "ĠErnst": 8599,
      "ĠSECURITIES": 8600,
      "ĠHawaii": 8601,
      "patient": 8602,
      "ĠSHEETS": 8603,
      "Ġproteins": 8604,
      "Ġcyclical": 8605,
      "CV": 8606,
      "EITF": 8607,
      "IK": 8608,
      "fund": 8609,
      "med": 8610,
      "Ġ#": 8611,
      "Ġtab": 8612,
      "Ġtender": 8613,
      "ona": 8614,
      "Ġmg": 8615,
      "icut": 8616,
      "Ġethanol": 8617,
      "mentioned": 8618,
      "Ġ250": 8619,
      "ĠCy": 8620,
      "ulations": 8621,
      "ĠSN": 8622,
      "Ġholid": 8623,
      "They": 8624,
      "redict": 8625,
      "irable": 8626,
      "Internal": 8627,
      "Ġvert": 8628,
      "ĠFred": 8629,
      "Ġresc": 8630,
      "ĠPR": 8631,
      "Ġrising": 8632,
      "ĠMer": 8633,
      "Ġfract": 8634,
      "ĠNGL": 8635,
      "emand": 8636,
      "ĠTy": 8637,
      "amation": 8638,
      "egot": 8639,
      "ĠâĢĺ": 8640,
      "ĠItal": 8641,
      "ĠJobs": 8642,
      "ordinary": 8643,
      "Ġleader": 8644,
      "riers": 8645,
      "Ġtransp": 8646,
      "ourth": 8647,
      "ĠHE": 8648,
      "Ġexpectation": 8649,
      "Ġcredited": 8650,
      "2018": 8651,
      "Ġnonqualified": 8652,
      "ĠChar": 8653,
      "ĠChic": 8654,
      "Ġ56": 8655,
      "exempt": 8656,
      "ĠTra": 8657,
      "erivatives": 8658,
      "ĠParty": 8659,
      "Ġshelf": 8660,
      "Ġprepare": 8661,
      "Ġpreparing": 8662,
      "Ġhereof": 8663,
      "Ġappropriately": 8664,
      "ĠSupport": 8665,
      "ĠNetherlands": 8666,
      "Ġfocuses": 8667,
      "Star": 8668,
      "ĠCoast": 8669,
      "REEMENTS": 8670,
      "Ġmerit": 8671,
      "Concentr": 8672,
      "Ġ1987": 8673,
      "Ġconsistently": 8674,
      "Ġdiversity": 8675,
      "pretation": 8676,
      "Subject": 8677,
      "amples": 8678,
      "anese": 8679,
      "Ġbuyers": 8680,
      "ĠIssued": 8681,
      "Ġmachines": 8682,
      "Ġduty": 8683,
      "Ġreversed": 8684,
      "Leases": 8685,
      "ĠOEMs": 8686,
      "International": 8687,
      "ĠSpecialty": 8688,
      "Ġsemi": 8689,
      "quirements": 8690,
      "ĠConsulting": 8691,
      "ustodian": 8692,
      "Government": 8693,
      "ĠArgent": 8694,
      "Ġfiduciary": 8695,
      "Ġunforeseen": 8696,
      "olvency": 8697,
      "BC": 8698,
      "Gu": 8699,
      "Min": 8700,
      "OTHER": 8701,
      "PB": 8702,
      "non": 8703,
      "operating": 8704,
      "rig": 8705,
      "Ġur": 8706,
      "Ġcome": 8707,
      "itations": 8708,
      "isers": 8709,
      "roub": 8710,
      "Ġethics": 8711,
      "Ġnumbers": 8712,
      "Ġstanding": 8713,
      "ĠDue": 8714,
      "ĠFil": 8715,
      "ĠFRB": 8716,
      "Ġrank": 8717,
      "ĠMoody": 8718,
      "ĠRuss": 8719,
      "ĠOkl": 8720,
      "Ġamends": 8721,
      "added": 8722,
      "Ġsublease": 8723,
      "ĠLender": 8724,
      "Ġinvo": 8725,
      "ĠUK": 8726,
      "ĠIr": 8727,
      "acent": 8728,
      "Ġequals": 8729,
      "Ġdevelopers": 8730,
      "ĠHotel": 8731,
      "Ġoutf": 8732,
      "2014": 8733,
      "ĠCommerce": 8734,
      "ĠVari": 8735,
      "ĠVentures": 8736,
      "inciples": 8737,
      "Ġ54": 8738,
      "Ġcompetes": 8739,
      "angu": 8740,
      "ĠConsent": 8741,
      "Ġarchitect": 8742,
      "Ġspecul": 8743,
      "key": 8744,
      "Ġ61": 8745,
      "Ġsellers": 8746,
      "Ġdesigning": 8747,
      "Ġcompetitor": 8748,
      "ĠRequirements": 8749,
      "folio": 8750,
      "ĠResource": 8751,
      "ĠReserves": 8752,
      "Ġrob": 8753,
      "Ġ144": 8754,
      "ĠAdditional": 8755,
      "Ġreservoir": 8756,
      "Ġpreserve": 8757,
      "ĠArk": 8758,
      "ĠShareholder": 8759,
      "inson": 8760,
      "Ġfinalized": 8761,
      "Ġmerits": 8762,
      "Ġinstallment": 8763,
      "Ġrents": 8764,
      "Ġquantity": 8765,
      "Ġremedies": 8766,
      "Ġformerly": 8767,
      "ahoma": 8768,
      "Ġcourts": 8769,
      "Ġpackages": 8770,
      "ĠDefense": 8771,
      "ĠMiddle": 8772,
      "Asset": 8773,
      "ĠQualitative": 8774,
      "Ġflexible": 8775,
      "ĠEvents": 8776,
      "Ġ382": 8777,
      "Ġfavorably": 8778,
      "Ġdrawn": 8779,
      "Contractual": 8780,
      "ĠCollabor": 8781,
      "CORP": 8782,
      "ĠConnecticut": 8783,
      "Ġsubscribers": 8784,
      "ĠCAPITAL": 8785,
      "Ġvigorously": 8786,
      "ĠOklahoma": 8787,
      "Bl": 8788,
      "CM": 8789,
      "HG": 8790,
      "Is": 8791,
      "LL": 8792,
      "OW": 8793,
      "top": 8794,
      "rex": 8795,
      "Ġcorn": 8796,
      "Ġinjunct": 8797,
      "Ġpoll": 8798,
      "Ġsent": 8799,
      "Ġsurch": 8800,
      "Ġbinding": 8801,
      "Ġele": 8802,
      "ĠCV": 8803,
      "ĠCell": 8804,
      "ĠCAR": 8805,
      "imarily": 8806,
      "ĠSmall": 8807,
      "ĠAst": 8808,
      "Ġweaken": 8809,
      "ĠFC": 8810,
      "Ġunemployment": 8811,
      "Ġacre": 8812,
      "ĠMad": 8813,
      "trans": 8814,
      "ĠNumber": 8815,
      "ĠOUR": 8816,
      "Ġimaging": 8817,
      "Ġstocks": 8818,
      "ĠLog": 8819,
      "Ġrelies": 8820,
      "ĠIf": 8821,
      "ĠIm": 8822,
      "liant": 8823,
      "Ġpayout": 8824,
      "ĠGS": 8825,
      "akers": 8826,
      "Ġspend": 8827,
      "Ġdepletion": 8828,
      "assess": 8829,
      "ĠUncertain": 8830,
      "Ġapplicant": 8831,
      "exclusive": 8832,
      "Ġdispos": 8833,
      "ĠRepurchase": 8834,
      "108": 8835,
      "ĠAmortization": 8836,
      "Ġassociation": 8837,
      "130": 8838,
      "Ġauditing": 8839,
      "Ġanalog": 8840,
      "............": 8841,
      "ĠIndemn": 8842,
      "ĠIndiana": 8843,
      "Ġdrivers": 8844,
      "Ġdelivering": 8845,
      "175": 8846,
      "ĠSuite": 8847,
      "Ġplacebo": 8848,
      "ĠFunding": 8849,
      "Ġtargeting": 8850,
      "Ġquotes": 8851,
      "Ġraising": 8852,
      "Ġcauses": 8853,
      "Ġpredicted": 8854,
      "Ġinsurer": 8855,
      "Ġunpredict": 8856,
      "Ġinfringing": 8857,
      "NOTES": 8858,
      "ĠBasin": 8859,
      "Ġminerals": 8860,
      "Ġdetected": 8861,
      "ĠEngland": 8862,
      "ĠCFO": 8863,
      "Ġprinting": 8864,
      "Ġmerged": 8865,
      "Ġupgrade": 8866,
      "ĠStrategy": 8867,
      "Ġdelinquent": 8868,
      "Ġterritories": 8869,
      "ĠAdvanced": 8870,
      "Ġcolumn": 8871,
      "Ġmagn": 8872,
      "ĠEnterprises": 8873,
      "Ġfifty": 8874,
      "ĠSIGNIFICANT": 8875,
      "Ġobserved": 8876,
      "Ġcatastrophic": 8877,
      "ĠWells": 8878,
      "Controls": 8879,
      "ĠOmnibus": 8880,
      "Ġmacro": 8881,
      "\".": 8882,
      "//": 8883,
      "115": 8884,
      "BT": 8885,
      "Elect": 8886,
      "GC": 8887,
      "PM": 8888,
      "Point": 8889,
      "fall": 8890,
      "lamm": 8891,
      "sw": 8892,
      "Ġaver": 8893,
      "iny": 8894,
      "itr": 8895,
      "Ġpanel": 8896,
      "Ġdone": 8897,
      "Ġdimin": 8898,
      "ĠCap": 8899,
      "ĠCERTAIN": 8900,
      "Ġlands": 8901,
      "quir": 8902,
      "ected": 8903,
      "Ġgives": 8904,
      "essrs": 8905,
      "Ġcoord": 8906,
      "antom": 8907,
      "Ġruling": 8908,
      "Ġprudent": 8909,
      "ĠMARKET": 8910,
      "Ġexpands": 8911,
      "ĠRail": 8912,
      "ĠES": 8913,
      "ĠEconomic": 8914,
      "ĠTEC": 8915,
      "ama": 8916,
      "egments": 8917,
      "istent": 8918,
      "Ġlien": 8919,
      "Ġclaus": 8920,
      "Ġenj": 8921,
      "ĠHill": 8922,
      "2017": 8923,
      "ĠWil": 8924,
      "ĠChrist": 8925,
      "ANTI": 8926,
      "ANTS": 8927,
      "Ġ73": 8928,
      "leton": 8929,
      "Ġ64": 8930,
      "Ġextending": 8931,
      "Ġ157": 8932,
      "Ġauthorize": 8933,
      "ĠKansas": 8934,
      "ĠSTAFF": 8935,
      "143": 8936,
      "Ġorderly": 8937,
      "Ġadopting": 8938,
      "Except": 8939,
      "ĠCOSO": 8940,
      "ĠPharma": 8941,
      "Ġguaranty": 8942,
      "Ġadding": 8943,
[...]
